
#ifdef __has_attribute
#define HAVE_ATTRIBUTE(x) __has_attribute(x)
#else
#define HAVE_ATTRIBUTE(x) 0
#endif
#if HAVE_ATTRIBUTE(aligned) || (defined(__GNUC__) && !defined(__clang__))
#define DATA_ALIGN_ATTRIBUTE __attribute__((aligned(4)))
#else
#define DATA_ALIGN_ATTRIBUTE
#endif

const unsigned char model_data[] DATA_ALIGN_ATTRIBUTE = {0x1c, 0x00, 0x00, 0x00, 0x54, 0x46, 0x4c, 0x33, 0x14, 0x00, 0x20, 0x00, 0x04, 0x00, 0x08, 0x00, 0x0c, 0x00, 0x10, 0x00, 0x14, 0x00, 0x00, 0x00, 0x18, 0x00, 0x1c, 0x00, 0x14, 0x00, 0x00, 0x00, 0x03, 0x00, 0x00, 0x00, 0x18, 0x00, 0x00, 0x00, 0x20, 0x00, 0x00, 0x00, 0x2c, 0x01, 0x00, 0x00, 0x20, 0x00, 0x00, 0x00, 0xd4, 0x00, 0x00, 0x00, 0x50, 0x00, 0x00, 0x00, 0x02, 0x00, 0x00, 0x00, 0x18, 0x04, 0x00, 0x00, 0xec, 0x01, 0x00, 0x00, 0x01, 0x00, 0x00, 0x00, 0x30, 0x01, 0x00, 0x00, 0x0d, 0x00, 0x00, 0x00, 0x98, 0x20, 0x00, 0x00, 0x94, 0x20, 0x00, 0x00, 0xc0, 0x1f, 0x00, 0x00, 0x30, 0x1f, 0x00, 0x00, 0x70, 0x1e, 0x00, 0x00, 0x20, 0x0e, 0x00, 0x00, 0xcc, 0x05, 0x00, 0x00, 0x78, 0x04, 0x00, 0x00, 0x78, 0x20, 0x00, 0x00, 0x74, 0x20, 0x00, 0x00, 0x70, 0x20, 0x00, 0x00, 0x6c, 0x20, 0x00, 0x00, 0xb8, 0x00, 0x00, 0x00, 0x01, 0x00, 0x00, 0x00, 0x10, 0x00, 0x00, 0x00, 0x00, 0x00, 0x0a, 0x00, 0x10, 0x00, 0x0c, 0x00, 0x08, 0x00, 0x04, 0x00, 0x0a, 0x00, 0x00, 0x00, 0x0c, 0x00, 0x00, 0x00, 0x1c, 0x00, 0x00, 0x00, 0x20, 0x00, 0x00, 0x00, 0x0f, 0x00, 0x00, 0x00, 0x73, 0x65, 0x72, 0x76, 0x69, 0x6e, 0x67, 0x5f, 0x64, 0x65, 0x66, 0x61, 0x75, 0x6c, 0x74, 0x00, 0x01, 0x00, 0x00, 0x00, 0x14, 0x00, 0x00, 0x00, 0x01, 0x00, 0x00, 0x00, 0x24, 0x00, 0x00, 0x00, 0x08, 0x00, 0x0c, 0x00, 0x08, 0x00, 0x04, 0x00, 0x08, 0x00, 0x00, 0x00, 0x0a, 0x00, 0x00, 0x00, 0x04, 0x00, 0x00, 0x00, 0x07, 0x00, 0x00, 0x00, 0x64, 0x65, 0x6e, 0x73, 0x65, 0x5f, 0x32, 0x00, 0xda, 0xe0, 0xff, 0xff, 0x04, 0x00, 0x00, 0x00, 0x0b, 0x00, 0x00, 0x00, 0x64, 0x65, 0x6e, 0x73, 0x65, 0x5f, 0x69, 0x6e, 0x70, 0x75, 0x74, 0x00, 0x01, 0x00, 0x00, 0x00, 0x0c, 0x00, 0x00, 0x00, 0x08, 0x00, 0x0c, 0x00, 0x04, 0x00, 0x08, 0x00, 0x08, 0x00, 0x00, 0x00, 0x08, 0x00, 0x00, 0x00, 0x0c, 0x00, 0x00, 0x00, 0x13, 0x00, 0x00, 0x00, 0x6d, 0x69, 0x6e, 0x5f, 0x72, 0x75, 0x6e, 0x74, 0x69, 0x6d, 0x65, 0x5f, 0x76, 0x65, 0x72, 0x73, 0x69, 0x6f, 0x6e, 0x00, 0x26, 0xe1, 0xff, 0xff, 0x04, 0x00, 0x00, 0x00, 0x10, 0x00, 0x00, 0x00, 0x31, 0x2e, 0x35, 0x2e, 0x30, 0x00, 0x00, 0x00, 0x00, 0x00, 0x00, 0x00, 0x00, 0x00, 0x00, 0x00, 0x0f, 0x00, 0x00, 0x00, 0x4d, 0x4c, 0x49, 0x52, 0x20, 0x43, 0x6f, 0x6e, 0x76, 0x65, 0x72, 0x74, 0x65, 0x64, 0x2e, 0x00, 0x00, 0x00, 0x0e, 0x00, 0x18, 0x00, 0x04, 0x00, 0x08, 0x00, 0x0c, 0x00, 0x10, 0x00, 0x14, 0x00, 0x0e, 0x00, 0x00, 0x00, 0x14, 0x00, 0x00, 0x00, 0x40, 0x00, 0x00, 0x00, 0x44, 0x00, 0x00, 0x00, 0x48, 0x00, 0x00, 0x00, 0x58, 0x00, 0x00, 0x00, 0x0b, 0x00, 0x00, 0x00, 0xf8, 0x1e, 0x00, 0x00, 0xac, 0x1e, 0x00, 0x00, 0x3c, 0x1e, 0x00, 0x00, 0xbc, 0x1d, 0x00, 0x00, 0xec, 0x1c, 0x00, 0x00, 0x98, 0x0c, 0x00, 0x00, 0x44, 0x04, 0x00, 0x00, 0xb4, 0x02, 0x00, 0x00, 0xc0, 0x01, 0x00, 0x00, 0x08, 0x01, 0x00, 0x00, 0x80, 0x00, 0x00, 0x00, 0x01, 0x00, 0x00, 0x00, 0x00, 0x00, 0x00, 0x00, 0x01, 0x00, 0x00, 0x00, 0x0a, 0x00, 0x00, 0x00, 0x04, 0x00, 0x00, 0x00, 0x38, 0x02, 0x00, 0x00, 0x68, 0x01, 0x00, 0x00, 0xb4, 0x00, 0x00, 0x00, 0x1c, 0x00, 0x00, 0x00, 0x04, 0x00, 0x00, 0x00, 0x6d, 0x61, 0x69, 0x6e, 0x00, 0x00, 0x0e, 0x00, 0x18, 0x00, 0x08, 0x00, 0x0c, 0x00, 0x10, 0x00, 0x07, 0x00, 0x14, 0x00, 0x0e, 0x00, 0x00, 0x00, 0x00, 0x00, 0x00, 0x09, 0x01, 0x00, 0x00, 0x00, 0x1c, 0x00, 0x00, 0x00, 0x10, 0x00, 0x00, 0x00, 0x04, 0x00, 0x00, 0x00, 0x02, 0xe2, 0xff, 0xff, 0x00, 0x00, 0x80, 0x3f, 0x01, 0x00, 0x00, 0x00, 0x0a, 0x00, 0x00, 0x00, 0x01, 0x00, 0x00, 0x00, 0x09, 0x00, 0x00, 0x00, 0xe4, 0xfd, 0xff, 0xff, 0x19, 0x00, 0x00, 0x00, 0x00, 0x00, 0x00, 0x19, 0x01, 0x00, 0x00, 0x00, 0xc4, 0xe1, 0xff, 0xff, 0x14, 0x00, 0x00, 0x00, 0x0b, 0x00, 0x00, 0x00, 0x18, 0x00, 0x00, 0x00, 0x40, 0x00, 0x00, 0x00, 0x30, 0x00, 0x00, 0x00, 0x02, 0x00, 0x00, 0x00, 0x01, 0x00, 0x00, 0x00, 0x04, 0x00, 0x00, 0x00, 0x19, 0x00, 0x00, 0x00, 0x53, 0x74, 0x61, 0x74, 0x65, 0x66, 0x75, 0x6c, 0x50, 0x61, 0x72, 0x74, 0x69, 0x74, 0x69, 0x6f, 0x6e, 0x65, 0x64, 0x43, 0x61, 0x6c, 0x6c, 0x3a, 0x30, 0x00, 0x00, 0x00, 0x02, 0x00, 0x00, 0x00, 0xff, 0xff, 0xff, 0xff, 0x04, 0x00, 0x00, 0x00, 0xa8, 0xe1, 0xff, 0xff, 0x5e, 0xff, 0xff, 0xff, 0x00, 0x00, 0x00, 0x08, 0x18, 0x00, 0x00, 0x00, 0x0c, 0x00, 0x00, 0x00, 0x04, 0x00, 0x00, 0x00, 0xc0, 0xe1, 0xff, 0xff, 0x01, 0x00, 0x00, 0x00, 0x09, 0x00, 0x00, 0x00, 0x03, 0x00, 0x00, 0x00, 0x08, 0x00, 0x00, 0x00, 0x06, 0x00, 0x00, 0x00, 0x01, 0x00, 0x00, 0x00, 0x48, 0xe2, 0xff, 0xff, 0x14, 0x00, 0x00, 0x00, 0x0a, 0x00, 0x00, 0x00, 0x18, 0x00, 0x00, 0x00, 0x5c, 0x00, 0x00, 0x00, 0x4c, 0x00, 0x00, 0x00, 0x02, 0x00, 0x00, 0x00, 0x01, 0x00, 0x00, 0x00, 0x04, 0x00, 0x00, 0x00, 0x34, 0x00, 0x00, 0x00, 0x73, 0x65, 0x71, 0x75, 0x65, 0x6e, 0x74, 0x69, 0x61, 0x6c, 0x2f, 0x64, 0x65, 0x6e, 0x73, 0x65, 0x5f, 0x32, 0x2f, 0x4d, 0x61, 0x74, 0x4d, 0x75, 0x6c, 0x3b, 0x73, 0x65, 0x71, 0x75, 0x65, 0x6e, 0x74, 0x69, 0x61, 0x6c, 0x2f, 0x64, 0x65, 0x6e, 0x73, 0x65, 0x5f, 0x32, 0x2f, 0x42, 0x69, 0x61, 0x73, 0x41, 0x64, 0x64, 0x00, 0x00, 0x00, 0x00, 0x02, 0x00, 0x00, 0x00, 0xff, 0xff, 0xff, 0xff, 0x04, 0x00, 0x00, 0x00, 0x24, 0xe3, 0xff, 0xff, 0x00, 0x00, 0x0e, 0x00, 0x14, 0x00, 0x00, 0x00, 0x08, 0x00, 0x0c, 0x00, 0x07, 0x00, 0x10, 0x00, 0x0e, 0x00, 0x00, 0x00, 0x00, 0x00, 0x00, 0x08, 0x1c, 0x00, 0x00, 0x00, 0x10, 0x00, 0x00, 0x00, 0x04, 0x00, 0x00, 0x00, 0x32, 0xff, 0xff, 0xff, 0x00, 0x00, 0x00, 0x01, 0x01, 0x00, 0x00, 0x00, 0x08, 0x00, 0x00, 0x00, 0x03, 0x00, 0x00, 0x00, 0x07, 0x00, 0x00, 0x00, 0x05, 0x00, 0x00, 0x00, 0x02, 0x00, 0x00, 0x00, 0xfc, 0xe2, 0xff, 0xff, 0x14, 0x00, 0x00, 0x00, 0x09, 0x00, 0x00, 0x00, 0x18, 0x00, 0x00, 0x00, 0x74, 0x00, 0x00, 0x00, 0x64, 0x00, 0x00, 0x00, 0x02, 0x00, 0x00, 0x00, 0x01, 0x00, 0x00, 0x00, 0x10, 0x00, 0x00, 0x00, 0x4c, 0x00, 0x00, 0x00, 0x73, 0x65, 0x71, 0x75, 0x65, 0x6e, 0x74, 0x69, 0x61, 0x6c, 0x2f, 0x64, 0x65, 0x6e, 0x73, 0x65, 0x5f, 0x31, 0x2f, 0x4d, 0x61, 0x74, 0x4d, 0x75, 0x6c, 0x3b, 0x73, 0x65, 0x71, 0x75, 0x65, 0x6e, 0x74, 0x69, 0x61, 0x6c, 0x2f, 0x64, 0x65, 0x6e, 0x73, 0x65, 0x5f, 0x31, 0x2f, 0x52, 0x65, 0x6c, 0x75, 0x3b, 0x73, 0x65, 0x71, 0x75, 0x65, 0x6e, 0x74, 0x69, 0x61, 0x6c, 0x2f, 0x64, 0x65, 0x6e, 0x73, 0x65, 0x5f, 0x31, 0x2f, 0x42, 0x69, 0x61, 0x73, 0x41, 0x64, 0x64, 0x00, 0x00, 0x00, 0x00, 0x02, 0x00, 0x00, 0x00, 0xff, 0xff, 0xff, 0xff, 0x10, 0x00, 0x00, 0x00, 0xf0, 0xe3, 0xff, 0xff, 0x00, 0x00, 0x0e, 0x00, 0x16, 0x00, 0x00, 0x00, 0x08, 0x00, 0x0c, 0x00, 0x07, 0x00, 0x10, 0x00, 0x0e, 0x00, 0x00, 0x00, 0x00, 0x00, 0x00, 0x08, 0x24, 0x00, 0x00, 0x00, 0x18, 0x00, 0x00, 0x00, 0x0c, 0x00, 0x00, 0x00, 0x00, 0x00, 0x06, 0x00, 0x08, 0x00, 0x07, 0x00, 0x06, 0x00, 0x00, 0x00, 0x00, 0x00, 0x00, 0x01, 0x01, 0x00, 0x00, 0x00, 0x07, 0x00, 0x00, 0x00, 0x03, 0x00, 0x00, 0x00, 0x00, 0x00, 0x00, 0x00, 0x04, 0x00, 0x00, 0x00, 0x03, 0x00, 0x00, 0x00, 0x0c, 0x00, 0x10, 0x00, 0x0b, 0x00, 0x00, 0x00, 0x0c, 0x00, 0x04, 0x00, 0x0c, 0x00, 0x00, 0x00, 0x09, 0x00, 0x00, 0x00, 0x00, 0x00, 0x00, 0x09, 0x01, 0x00, 0x00, 0x00, 0xec, 0xe3, 0xff, 0xff, 0x14, 0x00, 0x00, 0x00, 0x08, 0x00, 0x00, 0x00, 0x18, 0x00, 0x00, 0x00, 0x6c, 0x00, 0x00, 0x00, 0x5c, 0x00, 0x00, 0x00, 0x02, 0x00, 0x00, 0x00, 0x01, 0x00, 0x00, 0x00, 0x20, 0x00, 0x00, 0x00, 0x46, 0x00, 0x00, 0x00, 0x73, 0x65, 0x71, 0x75, 0x65, 0x6e, 0x74, 0x69, 0x61, 0x6c, 0x2f, 0x64, 0x65, 0x6e, 0x73, 0x65, 0x2f, 0x4d, 0x61, 0x74, 0x4d, 0x75, 0x6c, 0x3b, 0x73, 0x65, 0x71, 0x75, 0x65, 0x6e, 0x74, 0x69, 0x61, 0x6c, 0x2f, 0x64, 0x65, 0x6e, 0x73, 0x65, 0x2f, 0x52, 0x65, 0x6c, 0x75, 0x3b, 0x73, 0x65, 0x71, 0x75, 0x65, 0x6e, 0x74, 0x69, 0x61, 0x6c, 0x2f, 0x64, 0x65, 0x6e, 0x73, 0x65, 0x2f, 0x42, 0x69, 0x61, 0x73, 0x41, 0x64, 0x64, 0x00, 0x00, 0x02, 0x00, 0x00, 0x00, 0xff, 0xff, 0xff, 0xff, 0x20, 0x00, 0x00, 0x00, 0xfc, 0xe3, 0xff, 0xff, 0xd2, 0xe4, 0xff, 0xff, 0x04, 0x00, 0x00, 0x00, 0x00, 0x01, 0x00, 0x00, 0x9d, 0x00, 0x2d, 0x3e, 0x5e, 0x85, 0x03, 0xbe, 0xa1, 0x3f, 0x80, 0xbe, 0xbb, 0x7f, 0xab, 0x3e, 0xca, 0x3e, 0xbd, 0x3e, 0x32, 0x5a, 0x5d, 0x3d, 0x5a, 0x04, 0xf6, 0x3c, 0x28, 0x00, 0xad, 0xbe, 0x8f, 0x9b, 0x99, 0xbd, 0x14, 0x34, 0xcb, 0xbe, 0x3a, 0x88, 0xcb, 0xbe, 0xbe, 0x4c, 0x54, 0x3d, 0xc9, 0xb2, 0x68, 0xbd, 0x4b, 0x92, 0x78, 0xbe, 0xab, 0x13, 0xb9, 0x3d, 0xff, 0xff, 0x70, 0xbe, 0xd2, 0x7a, 0x45, 0x3d, 0x18, 0x4a, 0xfc, 0xbd, 0x25, 0x07, 0xc0, 0x3d, 0x9f, 0x61, 0x3a, 0xbe, 0x91, 0xe8, 0xbb, 0x3e, 0x90, 0x0b, 0x4e, 0xbe, 0x7e, 0xc0, 0xdb, 0x3e, 0x61, 0x4c, 0xa2, 0xbe, 0xf1, 0xae, 0xad, 0x3e, 0xa9, 0x1e, 0x81, 0x3d, 0x50, 0x02, 0x64, 0xbe, 0x54, 0x02, 0x24, 0x3d, 0x3e, 0x9a, 0x13, 0xbe, 0x58, 0x76, 0x4a, 0xbe, 0x04, 0x9c, 0xe6, 0xbd, 0x7e, 0xfa, 0xa7, 0xbd, 0x81, 0x1d, 0xd6, 0xbe, 0x51, 0x75, 0xb3, 0xbe, 0x81, 0xc6, 0xb5, 0x3d, 0xf7, 0xf5, 0x0f, 0x3e, 0xd9, 0x69, 0x6c, 0xbe, 0xac, 0x1b, 0xbc, 0x3e, 0xd7, 0x29, 0x77, 0x3e, 0x4b, 0x00, 0x90, 0xbe, 0x3c, 0xee, 0xa6, 0x3e, 0x06, 0x7d, 0x9c, 0x3d, 0x1b, 0x72, 0x6e, 0xbe, 0xf5, 0x8a, 0x0b, 0x3e, 0xd7, 0xb9, 0x59, 0x3e, 0xb0, 0x40, 0xac, 0x3e, 0x82, 0xc1, 0x9a, 0x3d, 0xb9, 0x97, 0xa0, 0xbe, 0x9e, 0x68, 0xb7, 0xbd, 0xe5, 0x3a, 0x03, 0xbf, 0xf4, 0x17, 0xe0, 0xbe, 0x63, 0xea, 0x1b, 0x3d, 0xe8, 0xbc, 0xbc, 0x3e, 0xc6, 0xf3, 0xdb, 0xbe, 0xbe, 0x0c, 0xd3, 0xbe, 0xd3, 0x6c, 0x82, 0xbe, 0x16, 0x75, 0x14, 0x3f, 0xd6, 0x71, 0x95, 0x3c, 0xb8, 0xee, 0xb0, 0xbe, 0x1a, 0xa8, 0xce, 0xbd, 0xbd, 0x60, 0x62, 0x3e, 0xf0, 0xe1, 0xf2, 0x3e, 0xbf, 0xf7, 0xe7, 0xbe, 0x2a, 0x96, 0xce, 0x3e, 0xba, 0xe5, 0xff, 0xff, 0x10, 0x00, 0x00, 0x00, 0x07, 0x00, 0x00, 0x00, 0x14, 0x00, 0x00, 0x00, 0x30, 0x00, 0x00, 0x00, 0x02, 0x00, 0x00, 0x00, 0x04, 0x00, 0x00, 0x00, 0x10, 0x00, 0x00, 0x00, 0x19, 0x00, 0x00, 0x00, 0x73, 0x65, 0x71, 0x75, 0x65, 0x6e, 0x74, 0x69, 0x61, 0x6c, 0x2f, 0x64, 0x65, 0x6e, 0x73, 0x65, 0x5f, 0x32, 0x2f, 0x4d, 0x61, 0x74, 0x4d, 0x75, 0x6c, 0x00, 0x00, 0x00, 0x4c, 0xe5, 0xff, 0xff, 0x22, 0xe6, 0xff, 0xff, 0x04, 0x00, 0x00, 0x00, 0x00, 0x08, 0x00, 0x00, 0x59, 0x54, 0x8e, 0x3d, 0xec, 0x2c, 0xe8, 0xbd, 0x50, 0x54, 0x59, 0x3d, 0x9d, 0x51, 0xc4, 0xbc, 0xc7, 0x33, 0xa5, 0x3d, 0xc6, 0xfc, 0xa0, 0xbe, 0x94, 0xa9, 0x17, 0x3e, 0x09, 0x47, 0xbb, 0xbe, 0xbb, 0x09, 0x51, 0x3e, 0x1c, 0xd4, 0x47, 0xbc, 0x93, 0xa8, 0xb3, 0xbd, 0xad, 0xcb, 0x82, 0xbe, 0x13, 0x64, 0x53, 0x3d, 0x6a, 0x74, 0x02, 0xbd, 0x11, 0x0d, 0x84, 0x3e, 0x6b, 0xf6, 0xd8, 0xbe, 0x70, 0x12, 0x0c, 0xbe, 0x23, 0x49, 0xa1, 0x3e, 0x56, 0xc2, 0xb7, 0xbe, 0x48, 0xf6, 0xa2, 0xbd, 0xde, 0x62, 0x45, 0x3e, 0x7a, 0x38, 0x80, 0x3e, 0x5e, 0xca, 0x0f, 0xbe, 0xc8, 0xf9, 0x1c, 0xbe, 0x2c, 0x5c, 0xa7, 0x3d, 0x76, 0xfe, 0x7a, 0x3e, 0xf5, 0x28, 0xbb, 0x3d, 0x18, 0xd7, 0xcc, 0xbe, 0x55, 0x21, 0x83, 0xbe, 0x90, 0x7e, 0xba, 0xbd, 0x9d, 0x04, 0xb1, 0x3c, 0xbf, 0xfb, 0x64, 0xbb, 0x09, 0xad, 0x28, 0xbd, 0x12, 0x36, 0x6c, 0xbe, 0x22, 0x67, 0x06, 0x3e, 0xdb, 0x5e, 0x81, 0x3e, 0x63, 0xbb, 0xc3, 0x3d, 0xb2, 0x77, 0x29, 0x3e, 0xb7, 0x4f, 0xa2, 0x3d, 0x57, 0x3f, 0x14, 0x3e, 0x40, 0x68, 0xa3, 0x3e, 0x52, 0xd1, 0x52, 0xbe, 0x15, 0x77, 0x30, 0xbe, 0xdd, 0xb8, 0xa0, 0x3e, 0xad, 0x90, 0x13, 0xbe, 0xc3, 0xba, 0xda, 0x3e, 0xe1, 0x77, 0x5c, 0x3e, 0x6b, 0x23, 0x0f, 0xbe, 0x59, 0x82, 0x4b, 0x3e, 0x9e, 0xbf, 0x7b, 0x3e, 0x95, 0xe8, 0x99, 0x3c, 0xf7, 0xeb, 0xab, 0xbd, 0x4f, 0x77, 0xd1, 0xbd, 0x75, 0xf7, 0x35, 0xbe, 0xea, 0xc9, 0x71, 0xbe, 0x82, 0x62, 0x69, 0xbe, 0x44, 0xf2, 0x45, 0x3e, 0x6c, 0x25, 0x9a, 0x3d, 0xa5, 0xb4, 0xa5, 0xbc, 0x10, 0x8c, 0x1b, 0xbe, 0x5b, 0xe7, 0x90, 0xbe, 0xb5, 0x91, 0x87, 0xbe, 0x2e, 0x52, 0x26, 0x3c, 0x7b, 0x35, 0x5a, 0x3e, 0xb4, 0x72, 0x95, 0x3e, 0x10, 0x6a, 0x28, 0xbd, 0x22, 0x10, 0x3c, 0x3e, 0x11, 0x0b, 0x57, 0xbe, 0xd3, 0x61, 0x6c, 0x3e, 0x24, 0xa6, 0x99, 0x3e, 0x9c, 0xac, 0xa5, 0xbe, 0x94, 0x35, 0xd7, 0xbd, 0x76, 0xae, 0x8e, 0x3e, 0x73, 0x78, 0x21, 0xbe, 0xe0, 0x6b, 0x79, 0x3e, 0x97, 0xc9, 0x73, 0xbe, 0x59, 0x8e, 0x4e, 0xbd, 0x3d, 0x8c, 0x56, 0xbe, 0x79, 0xf8, 0x68, 0xbd, 0x78, 0x2a, 0x66, 0xbd, 0xa9, 0xe1, 0x2e, 0xbe, 0x62, 0x48, 0x4c, 0x3e, 0xb7, 0x19, 0xcd, 0xbd, 0x1f, 0x9b, 0xe3, 0xbd, 0xe1, 0x52, 0xe0, 0xbd, 0x3a, 0x98, 0xfd, 0xbd, 0x00, 0x87, 0x78, 0xbd, 0x83, 0xed, 0x7f, 0x3e, 0x92, 0xb1, 0x13, 0xbe, 0x2e, 0xd7, 0x8f, 0xbe, 0x92, 0xc9, 0x32, 0xbe, 0xa2, 0x3c, 0x91, 0xbe, 0x43, 0x16, 0x03, 0x3e, 0xe0, 0x29, 0x40, 0x3d, 0x82, 0x3e, 0x80, 0x3e, 0x2c, 0xb9, 0x9b, 0x3e, 0x15, 0x04, 0x74, 0xbe, 0x53, 0x1d, 0x91, 0x3e, 0xb5, 0x0d, 0x94, 0x3e, 0xcd, 0x36, 0x8e, 0xbe, 0x11, 0x94, 0x2c, 0x3c, 0x3f, 0x22, 0x04, 0xbe, 0x88, 0xde, 0x80, 0x3e, 0x46, 0x27, 0xe8, 0x3d, 0x38, 0x9c, 0x16, 0x3e, 0x4d, 0xdc, 0x46, 0xbc, 0x9f, 0x6c, 0x02, 0x3e, 0x7a, 0xad, 0x19, 0x3e, 0x3f, 0x88, 0x5b, 0xb9, 0xab, 0x6e, 0x2f, 0x3d, 0x48, 0x09, 0xdf, 0x3d, 0xec, 0x6c, 0x11, 0xbe, 0x81, 0x18, 0x22, 0xbe, 0x80, 0x93, 0x8a, 0xbd, 0xeb, 0x90, 0x8f, 0xbe, 0x64, 0xee, 0x66, 0x3e, 0x15, 0x75, 0x9c, 0xbe, 0x2f, 0x95, 0x64, 0x3e, 0x4a, 0xbe, 0xf6, 0xbd, 0xea, 0xf9, 0x26, 0x3d, 0xe9, 0x54, 0x15, 0xbd, 0xa8, 0x12, 0x86, 0xbd, 0xfe, 0x5b, 0x7b, 0xbe, 0x4a, 0x66, 0xa7, 0xbe, 0x83, 0x60, 0x64, 0xbe, 0xb4, 0x78, 0x2b, 0xbe, 0x91, 0x92, 0xd1, 0x3d, 0x54, 0x4d, 0xef, 0x3c, 0xb3, 0xab, 0x13, 0x3e, 0x44, 0x0b, 0x83, 0xbe, 0x68, 0xc7, 0x83, 0xbd, 0x80, 0xc5, 0xd7, 0xbd, 0xa4, 0xe5, 0xa2, 0xbd, 0x53, 0x92, 0x37, 0x3e, 0x42, 0x07, 0x7d, 0xbc, 0xe3, 0xde, 0x97, 0xbe, 0x5d, 0x50, 0xc6, 0xbd, 0x19, 0x27, 0x23, 0x3e, 0x27, 0x86, 0x88, 0xbe, 0xad, 0xee, 0x64, 0x3e, 0x71, 0x72, 0x99, 0xbe, 0xd0, 0xe4, 0x78, 0xbd, 0xb6, 0xc4, 0x4f, 0x3d, 0xde, 0xca, 0x65, 0x3e, 0x3c, 0x2e, 0xbf, 0xbe, 0xff, 0x79, 0x92, 0x3e, 0x8e, 0x31, 0x95, 0xbd, 0x82, 0x1d, 0x16, 0xbe, 0x87, 0xef, 0x94, 0xbe, 0xcc, 0xc3, 0xfc, 0xbd, 0x08, 0xf3, 0x16, 0x3d, 0x2b, 0xf0, 0x04, 0x3e, 0x41, 0x01, 0xbf, 0xbd, 0x88, 0xe2, 0x9a, 0xbd, 0x7f, 0x3c, 0x8f, 0x3d, 0x49, 0xe9, 0x01, 0xbe, 0x09, 0x63, 0xe0, 0xbd, 0xa0, 0xfa, 0x30, 0x3d, 0x03, 0x47, 0xa4, 0x3c, 0x7d, 0x3c, 0x62, 0x3e, 0x5f, 0x65, 0x4e, 0x3e, 0x19, 0xc9, 0x88, 0xbe, 0x29, 0x50, 0x88, 0x3e, 0x1e, 0x63, 0xfd, 0x3d, 0x7d, 0xf6, 0xc8, 0x3e, 0xad, 0x00, 0xa6, 0x3d, 0x48, 0x8f, 0x39, 0xbe, 0xd1, 0x1d, 0x8d, 0xbd, 0x0d, 0x18, 0x83, 0x3e, 0xaf, 0x59, 0x8d, 0xbe, 0x6b, 0x9f, 0x3f, 0xbd, 0xab, 0x5b, 0xd9, 0xbc, 0x89, 0x90, 0x5d, 0xbe, 0x30, 0x36, 0xa1, 0xbe, 0x99, 0x59, 0x90, 0x3d, 0x2f, 0x95, 0x22, 0x3e, 0x5b, 0x0c, 0x51, 0x3d, 0x98, 0x15, 0x17, 0xbd, 0x2a, 0x52, 0x13, 0xbe, 0x84, 0x06, 0x25, 0x3e, 0x75, 0x25, 0xe7, 0xbd, 0xcb, 0xcf, 0x12, 0xbd, 0x9a, 0xe6, 0x89, 0xbe, 0x1a, 0x18, 0xa6, 0x3d, 0x57, 0xda, 0x53, 0x3d, 0x60, 0x77, 0x14, 0xbc, 0xbb, 0xb8, 0xaf, 0xbe, 0x1a, 0xf7, 0xbb, 0xbd, 0xfa, 0x17, 0x87, 0x3e, 0xd0, 0x52, 0x5c, 0x3d, 0x4a, 0xda, 0x5e, 0xbe, 0xd2, 0x82, 0xc8, 0xbe, 0x9e, 0x8e, 0x92, 0x3e, 0x20, 0x86, 0x5a, 0x3d, 0x90, 0x55, 0xe1, 0x3c, 0xa9, 0x33, 0x6c, 0xbe, 0x82, 0x8a, 0x7c, 0xbe, 0xee, 0x95, 0x90, 0x3c, 0x63, 0xa6, 0xd8, 0xbd, 0xbe, 0xa2, 0xc1, 0xbd, 0x82, 0xed, 0xb3, 0xbd, 0x56, 0xf3, 0x4c, 0x3c, 0xc8, 0x5a, 0x7c, 0x3c, 0x1a, 0x6b, 0x0a, 0x3d, 0xd2, 0x52, 0x18, 0xbe, 0xbd, 0xeb, 0x2f, 0xbc, 0x12, 0xbd, 0xd4, 0x3d, 0x17, 0xe6, 0xc8, 0xbe, 0x7e, 0xe9, 0x9c, 0x3e, 0xe8, 0xc8, 0x0e, 0xbd, 0x56, 0xac, 0xa8, 0xbb, 0x9a, 0x5d, 0x57, 0xbd, 0x97, 0xba, 0x8b, 0xbe, 0x74, 0x10, 0xb3, 0x3d, 0x80, 0x17, 0x9a, 0xbe, 0x8b, 0xdf, 0x92, 0xbd, 0x0a, 0x27, 0x30, 0xbd, 0xfa, 0xbd, 0x4e, 0x3e, 0x6e, 0x06, 0x00, 0xbc, 0x5a, 0xf9, 0x89, 0xbe, 0xf5, 0xb8, 0x9b, 0x3e, 0x7c, 0xcc, 0xf4, 0x3d, 0x80, 0x1b, 0xf4, 0x3d, 0x3e, 0xea, 0x8f, 0xbd, 0xfa, 0x15, 0xee, 0x3d, 0x45, 0xeb, 0x9f, 0x3e, 0xd8, 0x78, 0x52, 0xbd, 0x6e, 0xc6, 0x5f, 0x3e, 0x92, 0x94, 0x88, 0xbe, 0x43, 0x8e, 0x41, 0xbe, 0x6f, 0x01, 0xb6, 0x3d, 0xb1, 0xec, 0xb5, 0xbd, 0x6b, 0x08, 0x33, 0x3d, 0x59, 0x5c, 0x19, 0xbe, 0x12, 0x3a, 0x48, 0x3e, 0x8a, 0x26, 0xb5, 0xbe, 0x27, 0xe9, 0xbe, 0xbe, 0xa2, 0x36, 0xb3, 0xbd, 0xf3, 0x7d, 0xe5, 0xbd, 0xaf, 0x09, 0x6b, 0x3d, 0x18, 0xfb, 0x59, 0x3e, 0x80, 0x9e, 0xf8, 0x3c, 0xa5, 0xa5, 0xa6, 0xbe, 0x2f, 0x17, 0x4f, 0x3e, 0xe8, 0x49, 0x90, 0xbc, 0xa7, 0x02, 0xa2, 0xbe, 0xf6, 0x86, 0xb4, 0xbe, 0x16, 0x9e, 0x34, 0x3e, 0xb0, 0xc7, 0x9a, 0x3e, 0x80, 0x8b, 0xb5, 0xbc, 0xa5, 0xd2, 0xe7, 0x3d, 0x54, 0x75, 0xef, 0x3d, 0xa6, 0xfb, 0x43, 0xbe, 0x63, 0x5e, 0x44, 0xbe, 0xb9, 0x69, 0x72, 0xbe, 0xf7, 0x5c, 0x9d, 0xbe, 0xfd, 0xcd, 0x00, 0xbe, 0x11, 0x92, 0x97, 0x3e, 0xe4, 0x1d, 0x8f, 0xbd, 0x00, 0xa9, 0xe2, 0x3d, 0x93, 0xa0, 0xbb, 0x3c, 0xca, 0xea, 0x88, 0x3d, 0xd2, 0xf2, 0x2a, 0x3e, 0x42, 0x03, 0x86, 0xbe, 0x41, 0x2b, 0xb3, 0x3e, 0xaf, 0x52, 0xec, 0xbc, 0x90, 0xa5, 0x2a, 0xbe, 0xbc, 0x53, 0xf0, 0xbe, 0x81, 0x4b, 0x4e, 0x3e, 0x10, 0x09, 0x1c, 0xbe, 0x29, 0x24, 0x70, 0xbd, 0x3f, 0xab, 0x4e, 0x3e, 0x45, 0x8d, 0x53, 0xbe, 0x89, 0x0f, 0x86, 0x3e, 0x62, 0x6c, 0x35, 0xbe, 0xbc, 0x74, 0xdd, 0x3d, 0xa2, 0x1a, 0x79, 0xbe, 0x6f, 0x2a, 0x73, 0xbd, 0xfa, 0x69, 0x29, 0x3e, 0xda, 0x15, 0xad, 0x3d, 0x51, 0x48, 0x92, 0x3d, 0x90, 0x6e, 0x86, 0x3c, 0x4f, 0x30, 0x41, 0x3e, 0xd3, 0x3d, 0xb0, 0xbe, 0x5f, 0x49, 0x74, 0xbe, 0x91, 0xa0, 0xa8, 0x3e, 0xb2, 0xc9, 0xa7, 0xbe, 0x9f, 0xf4, 0x38, 0xbe, 0xd6, 0x26, 0x67, 0x3a, 0x00, 0x98, 0x8c, 0x3d, 0xf8, 0xba, 0xf0, 0x3d, 0x53, 0x2a, 0x9a, 0x3e, 0xa4, 0xa8, 0x10, 0x3e, 0xbd, 0x01, 0x36, 0x3e, 0xf8, 0x79, 0xe1, 0xbc, 0xb5, 0xeb, 0xd0, 0x3d, 0x6f, 0x1d, 0xbf, 0x3d, 0x22, 0x99, 0xa6, 0x3e, 0x83, 0xa7, 0x39, 0x3e, 0x74, 0xc0, 0xcb, 0xbd, 0xa3, 0xe0, 0xa6, 0x3e, 0xd3, 0x12, 0x8b, 0xbe, 0xc6, 0x66, 0xad, 0xbe, 0x2c, 0xde, 0x13, 0x3d, 0x77, 0x9f, 0x8c, 0x3c, 0x4e, 0x88, 0x60, 0x3e, 0xc3, 0x47, 0x42, 0x3d, 0xec, 0x95, 0x4a, 0xbe, 0x13, 0x38, 0xa1, 0xbe, 0xce, 0x33, 0x74, 0xbe, 0xdf, 0xab, 0x8f, 0x3e, 0x97, 0x70, 0x56, 0xbe, 0xe8, 0x32, 0x39, 0x3d, 0xd4, 0x9a, 0xe3, 0x3d, 0x19, 0x9c, 0x61, 0xbe, 0x00, 0x20, 0x2a, 0xbe, 0x4f, 0x71, 0xb6, 0xbd, 0xd0, 0x74, 0xc5, 0xbd, 0x9b, 0x51, 0x27, 0x3e, 0x53, 0xb4, 0x88, 0x3e, 0xf5, 0xe8, 0x29, 0xbe, 0x90, 0xab, 0xa0, 0x3d, 0x82, 0xaa, 0x73, 0xbe, 0x2e, 0x25, 0x42, 0xbe, 0x03, 0xd5, 0x32, 0x3e, 0xbe, 0x0d, 0x1d, 0x3d, 0xbc, 0x4b, 0xdf, 0x3d, 0xd5, 0x92, 0x01, 0xbd, 0x1a, 0xc2, 0x97, 0x3e, 0xcc, 0x2a, 0xce, 0x3e, 0xf7, 0x6b, 0xea, 0xbc, 0x52, 0x28, 0x91, 0x3c, 0x90, 0x7f, 0x64, 0x3e, 0xce, 0x1f, 0x5a, 0x3e, 0x32, 0x4f, 0x53, 0xbe, 0xa4, 0x94, 0x47, 0xbe, 0x68, 0x5a, 0x0e, 0x3d, 0x09, 0xbb, 0x9d, 0xbe, 0x7a, 0x94, 0x22, 0xbe, 0xd8, 0xe1, 0x3d, 0xbe, 0xed, 0x29, 0x9d, 0x3e, 0x1e, 0x17, 0xa2, 0x3d, 0xe0, 0x82, 0x7a, 0x3d, 0x0a, 0x5a, 0x20, 0x3e, 0xd1, 0xbb, 0x87, 0x3d, 0xc1, 0x4a, 0xac, 0x3e, 0x4d, 0xe1, 0x55, 0xbe, 0xb3, 0x4b, 0x9e, 0xbc, 0xba, 0x57, 0x91, 0x3e, 0x22, 0xaa, 0x2c, 0x3e, 0xe9, 0x85, 0xb5, 0xbd, 0xa8, 0x23, 0xf8, 0xbc, 0xd8, 0x15, 0xa0, 0x3d, 0x52, 0x54, 0x68, 0x3e, 0x29, 0x1c, 0x66, 0xbe, 0xaa, 0xb8, 0x73, 0x3e, 0x7e, 0xf1, 0xc0, 0x3d, 0xe7, 0x21, 0x15, 0xbe, 0xf6, 0xb9, 0x84, 0xbe, 0x4d, 0xc1, 0xa3, 0xba, 0xac, 0xe8, 0x04, 0x3e, 0xa0, 0xfe, 0xcd, 0x3c, 0x52, 0x72, 0xc6, 0x3a, 0xe2, 0xb1, 0xc5, 0xbe, 0xe5, 0x91, 0xe6, 0x3a, 0x42, 0xec, 0xef, 0x3d, 0xb5, 0x14, 0x30, 0x3e, 0xf1, 0xec, 0x9e, 0x3d, 0x1e, 0x84, 0xca, 0x3d, 0x8a, 0x59, 0x63, 0xbe, 0xe1, 0x99, 0x6a, 0x3e, 0xe9, 0x06, 0x8a, 0x3d, 0x07, 0xb7, 0xa4, 0xbe, 0xb9, 0x40, 0xb8, 0xbe, 0x88, 0x92, 0x49, 0xbd, 0x36, 0x76, 0x80, 0x3e, 0xae, 0x74, 0xbc, 0xbe, 0x76, 0x7d, 0x58, 0xbe, 0xd4, 0x5c, 0x68, 0xbe, 0x06, 0xfb, 0xdd, 0xbd, 0x4d, 0x00, 0x92, 0x3e, 0x22, 0x0f, 0x2c, 0x3e, 0x7a, 0x3a, 0x07, 0xbd, 0x1c, 0x3e, 0x21, 0x3e, 0xd5, 0x05, 0x9e, 0xbe, 0x22, 0xe6, 0x70, 0x3e, 0xbb, 0x4d, 0xaa, 0x3e, 0xe9, 0x1f, 0xa1, 0xbe, 0xf9, 0x83, 0xa8, 0x3e, 0xf7, 0x31, 0x20, 0x3e, 0x42, 0x49, 0xa3, 0x3e, 0x52, 0x86, 0x54, 0x3e, 0xeb, 0x3c, 0xff, 0xbd, 0x89, 0x33, 0x50, 0xbe, 0x47, 0x5a, 0x66, 0xbe, 0x7b, 0x2c, 0x9c, 0xbe, 0x81, 0x1a, 0x14, 0xbe, 0x4b, 0x4b, 0x50, 0xbe, 0x14, 0x2f, 0x95, 0xbe, 0x4c, 0x66, 0xe2, 0x3d, 0xe8, 0x86, 0x30, 0x3e, 0x50, 0x34, 0xb1, 0xbe, 0xcf, 0x80, 0x15, 0xbe, 0xb3, 0xbb, 0x62, 0xbd, 0x0a, 0x13, 0x46, 0x3e, 0xc8, 0xde, 0x77, 0xbe, 0x1a, 0x18, 0x19, 0x3e, 0x7c, 0x3b, 0x42, 0x3d, 0x0c, 0xbe, 0x8c, 0xbe, 0xfb, 0xf0, 0xa4, 0xbe, 0x79, 0x41, 0x5a, 0x3e, 0x2c, 0xcd, 0x7c, 0x3d, 0xa4, 0x70, 0x10, 0x3e, 0xa6, 0x7a, 0x48, 0xbe, 0x8a, 0x6b, 0xde, 0xbe, 0x8d, 0x15, 0x03, 0xbe, 0x38, 0x55, 0x88, 0xbc, 0xd5, 0xc4, 0x8d, 0x3e, 0x88, 0xca, 0x9e, 0xbe, 0xce, 0xbd, 0x59, 0x3e, 0x29, 0x45, 0x95, 0xbe, 0x48, 0x97, 0x83, 0xbe, 0x15, 0x8d, 0xc8, 0xbd, 0xc3, 0xb0, 0x66, 0xbd, 0xc8, 0x28, 0xbc, 0xbd, 0x0c, 0x5a, 0xc7, 0x3d, 0xa9, 0x45, 0x50, 0x3e, 0xdf, 0xb0, 0xc7, 0xbd, 0xa9, 0xaf, 0x41, 0xbb, 0x68, 0x9b, 0x42, 0x3e, 0xb5, 0x90, 0xc4, 0xbe, 0x9c, 0x19, 0x3d, 0xbe, 0x19, 0x79, 0x34, 0xbe, 0x4c, 0x98, 0xa8, 0xbd, 0xf8, 0x31, 0x82, 0xbe, 0xe4, 0xa8, 0x0a, 0x3e, 0xb3, 0x78, 0x1e, 0xbe, 0xd0, 0x22, 0x16, 0xbe, 0x96, 0xa3, 0x30, 0x3e, 0x75, 0x54, 0x60, 0x3e, 0x00, 0x0e, 0x09, 0xbd, 0xc6, 0x97, 0x50, 0x3e, 0xb5, 0xf1, 0x58, 0xbe, 0x44, 0x13, 0xa6, 0x3e, 0x52, 0xe3, 0x48, 0xbe, 0xae, 0x5f, 0x47, 0x3e, 0x2b, 0x12, 0x12, 0xbe, 0xa7, 0x1d, 0xc7, 0xbe, 0x31, 0xf4, 0xae, 0x3d, 0x83, 0x08, 0xb0, 0xbe, 0x90, 0xca, 0xaf, 0x3c, 0x6e, 0x9b, 0x69, 0x3e, 0x36, 0x1e, 0x87, 0xbe, 0x8b, 0x55, 0x22, 0xbe, 0xbd, 0xdc, 0x9f, 0xbe, 0x7f, 0x4d, 0x84, 0x3e, 0xda, 0xaa, 0xb6, 0xbd, 0xea, 0xf5, 0x71, 0x3e, 0xbb, 0x11, 0x74, 0x3e, 0xb0, 0x58, 0xa9, 0xbe, 0xa4, 0xb7, 0xc9, 0x3d, 0xb1, 0x0c, 0xb8, 0x3d, 0x11, 0xee, 0xd8, 0xbb, 0x1a, 0x16, 0xc6, 0xbe, 0xf4, 0x3b, 0x13, 0xbe, 0xf0, 0xcd, 0xd7, 0x3d, 0x8b, 0x75, 0x3c, 0xbd, 0xcd, 0x50, 0xd3, 0x3c, 0x8d, 0x94, 0xe5, 0x3c, 0x86, 0xff, 0xc8, 0xbe, 0xc0, 0xe2, 0x5d, 0xbe, 0x02, 0x97, 0x4b, 0xbe, 0x02, 0xfb, 0x39, 0xbe, 0x82, 0x81, 0x61, 0x3e, 0x95, 0x39, 0x31, 0xbe, 0x8f, 0x0a, 0x84, 0x3d, 0x67, 0xb1, 0x85, 0x3c, 0xce, 0xe1, 0x6d, 0x3e, 0x07, 0x6e, 0xa6, 0xbe, 0xcd, 0xc4, 0x3b, 0xbc, 0xc9, 0x2d, 0x86, 0x3e, 0x00, 0x72, 0xb2, 0xba, 0x07, 0x50, 0xb0, 0x3e, 0x24, 0x25, 0x81, 0xbe, 0x34, 0x27, 0xa8, 0xbe, 0x71, 0x31, 0x0c, 0xba, 0xe1, 0x94, 0x10, 0x3e, 0xa5, 0x18, 0x94, 0xbe, 0x55, 0xe8, 0xb2, 0x3e, 0xec, 0x26, 0x66, 0x3d, 0x67, 0xb2, 0x1b, 0xbe, 0x16, 0xc2, 0xf0, 0xbd, 0xea, 0x91, 0x29, 0xbe, 0xd9, 0x55, 0x8f, 0x3b, 0x2d, 0xe5, 0xa6, 0xbe, 0x74, 0xa4, 0x3a, 0xbe, 0x9f, 0x37, 0xf5, 0xbd, 0xd5, 0x54, 0x84, 0xbe, 0xb5, 0x75, 0xa0, 0x3c, 0x50, 0x88, 0xa8, 0x3d, 0xba, 0xcb, 0x0d, 0xbe, 0x40, 0xbc, 0xba, 0x3e, 0x30, 0xeb, 0x2f, 0x3d, 0x60, 0x4d, 0x85, 0x3e, 0xc5, 0x42, 0xdf, 0xbd, 0x0e, 0xd0, 0x27, 0x3e, 0xd2, 0xad, 0x3a, 0x3d, 0xef, 0x57, 0xf6, 0xbc, 0x57, 0x7f, 0xaa, 0xbe, 0x30, 0xdc, 0xd3, 0x3d, 0xf9, 0x0a, 0x23, 0xbb, 0x91, 0x7b, 0x18, 0xbe, 0x0a, 0xee, 0xff, 0xff, 0x10, 0x00, 0x00, 0x00, 0x06, 0x00, 0x00, 0x00, 0x14, 0x00, 0x00, 0x00, 0x30, 0x00, 0x00, 0x00, 0x02, 0x00, 0x00, 0x00, 0x10, 0x00, 0x00, 0x00, 0x20, 0x00, 0x00, 0x00, 0x19, 0x00, 0x00, 0x00, 0x73, 0x65, 0x71, 0x75, 0x65, 0x6e, 0x74, 0x69, 0x61, 0x6c, 0x2f, 0x64, 0x65, 0x6e, 0x73, 0x65, 0x5f, 0x31, 0x2f, 0x4d, 0x61, 0x74, 0x4d, 0x75, 0x6c, 0x00, 0x00, 0x00, 0x9c, 0xed, 0xff, 0xff, 0x72, 0xee, 0xff, 0xff, 0x04, 0x00, 0x00, 0x00, 0x00, 0x10, 0x00, 0x00, 0xc0, 0xf4, 0x11, 0xbd, 0xe5, 0x8d, 0x71, 0x3d, 0xc8, 0x84, 0xde, 0xbd, 0x9d, 0xe9, 0x01, 0x3e, 0xfe, 0x18, 0x33, 0x3e, 0xa0, 0xb3, 0xd1, 0xbd, 0xd2, 0xe7, 0xab, 0xbe, 0x7e, 0x3c, 0x62, 0x3e, 0xcd, 0x9e, 0xb8, 0x3d, 0x59, 0xc7, 0x7a, 0x3e, 0x72, 0x3f, 0x3b, 0xbe, 0x31, 0x86, 0xb3, 0x3b, 0xc1, 0x31, 0xa2, 0xbe, 0x1a, 0x3b, 0x1c, 0x3e, 0xc7, 0x00, 0x41, 0x3e, 0x61, 0x59, 0x90, 0x3d, 0x7b, 0xbb, 0xa1, 0xbe, 0x99, 0x67, 0xb4, 0xbd, 0x5d, 0x0e, 0x08, 0x3e, 0x48, 0x02, 0x3a, 0x3e, 0x3c, 0xde, 0x86, 0xbe, 0xb1, 0x12, 0xb2, 0x3d, 0x37, 0x2a, 0x63, 0xbe, 0x4c, 0x01, 0x6b, 0xbe, 0x7c, 0xba, 0x28, 0xbd, 0xbb, 0xb5, 0x47, 0xbd, 0x67, 0xad, 0x54, 0x3d, 0xf3, 0xe8, 0x8c, 0xbe, 0x68, 0xdb, 0xa5, 0x3d, 0x07, 0xa8, 0x4d, 0x3e, 0x6f, 0xbf, 0x48, 0x3d, 0x96, 0xa3, 0x0f, 0xbe, 0xa8, 0xf8, 0x13, 0xbd, 0x10, 0x22, 0x84, 0x3c, 0x92, 0xe4, 0x46, 0xbe, 0xc4, 0xda, 0x7d, 0xbe, 0x08, 0x32, 0x6d, 0xbe, 0x3f, 0xb1, 0x7e, 0xbe, 0xeb, 0x24, 0x65, 0xbe, 0xa0, 0x9c, 0x91, 0xbe, 0x48, 0xc1, 0x2d, 0x3e, 0x64, 0xeb, 0xa2, 0xbd, 0x60, 0x25, 0x19, 0x3d, 0x61, 0xb5, 0x8f, 0x3e, 0x62, 0xd7, 0xba, 0xbd, 0x0e, 0x01, 0x81, 0xbd, 0x80, 0xf5, 0xfb, 0x3d, 0x80, 0x7d, 0xa4, 0x3c, 0x98, 0xd7, 0x18, 0x3e, 0x9e, 0x7d, 0x52, 0x3e, 0x81, 0xe8, 0x64, 0xbe, 0x03, 0xb6, 0x85, 0xbe, 0x7c, 0x29, 0x76, 0xbd, 0x28, 0xce, 0x24, 0x3d, 0xd0, 0xf2, 0xdd, 0xbc, 0xc0, 0x72, 0xe6, 0xbb, 0x18, 0x0b, 0x85, 0xbe, 0x34, 0x42, 0x6e, 0xbd, 0x33, 0x47, 0x94, 0xbe, 0xe4, 0xbc, 0x85, 0xbe, 0x43, 0x9c, 0x32, 0xbe, 0xac, 0xbb, 0x74, 0xbd, 0xc8, 0x27, 0xc1, 0x3d, 0xde, 0x46, 0xa4, 0xbd, 0x7a, 0x81, 0xb8, 0xbd, 0x00, 0x6f, 0x64, 0xbb, 0x5c, 0xe3, 0x66, 0xbe, 0x50, 0xbf, 0x81, 0xbe, 0xb2, 0xa5, 0x64, 0xbe, 0x08, 0xbe, 0x21, 0xbd, 0x0d, 0x1a, 0x86, 0xbe, 0x68, 0x04, 0x1e, 0x3e, 0xec, 0x76, 0xc1, 0x3d, 0x4e, 0xb1, 0x18, 0x3e, 0xd2, 0x76, 0x40, 0xbe, 0x04, 0xd5, 0xe1, 0xbd, 0xb2, 0x07, 0xc8, 0xbd, 0xce, 0x0c, 0x4a, 0xbe, 0x2a, 0xfd, 0x83, 0xbe, 0x38, 0x62, 0x34, 0x3e, 0xfc, 0xc3, 0x67, 0xbe, 0xac, 0x06, 0xec, 0x3d, 0x10, 0xcf, 0xcc, 0xbd, 0x40, 0x1d, 0xd4, 0x3d, 0x60, 0xb7, 0x8e, 0xbc, 0xfe, 0x34, 0xd2, 0xbd, 0x34, 0x18, 0x3e, 0x3e, 0x40, 0xea, 0xcd, 0x3c, 0x18, 0xf3, 0x12, 0xbe, 0xd8, 0x37, 0x29, 0x3d, 0x1a, 0x4b, 0xbd, 0xbd, 0x44, 0xd6, 0x30, 0xbe, 0x8f, 0x0f, 0x96, 0x3e, 0x3d, 0x04, 0x58, 0xbe, 0x86, 0xdd, 0xfd, 0xbd, 0xcd, 0xb5, 0x16, 0xbe, 0xdc, 0xda, 0xf5, 0xbc, 0xe5, 0x7a, 0x3a, 0xbe, 0x02, 0xa1, 0xa6, 0x3d, 0x76, 0x96, 0x8b, 0x3d, 0x23, 0x0c, 0x22, 0xbe, 0xbc, 0x54, 0xc3, 0x3b, 0xbe, 0xd9, 0xed, 0xbc, 0x85, 0x72, 0x91, 0xbe, 0x49, 0xd5, 0x35, 0xbb, 0x0e, 0x5c, 0x75, 0x3d, 0x5f, 0xd6, 0x26, 0xbe, 0x9a, 0x11, 0x96, 0xbe, 0x67, 0x61, 0x16, 0xbe, 0x98, 0x09, 0x74, 0x3c, 0xe2, 0x33, 0x3a, 0x3e, 0xaa, 0x32, 0x8f, 0x3e, 0xfb, 0x3c, 0x8c, 0x3d, 0x1d, 0xcc, 0x67, 0x3e, 0x8a, 0x0d, 0x21, 0xbe, 0x4d, 0xd9, 0x9c, 0x3c, 0x03, 0x9a, 0x79, 0x3e, 0x00, 0x37, 0x68, 0x3e, 0xa6, 0x61, 0x49, 0x3e, 0x6c, 0x77, 0xd4, 0x3c, 0x6e, 0x9d, 0x28, 0x3d, 0x89, 0x58, 0x9c, 0xbe, 0xc4, 0x6a, 0xe4, 0xbd, 0x13, 0x65, 0x65, 0xbd, 0xb6, 0x9f, 0x9e, 0xbe, 0x10, 0xec, 0x81, 0xbe, 0x25, 0xae, 0x52, 0xbd, 0xf0, 0x1b, 0x8e, 0x3e, 0x59, 0x56, 0x9f, 0xbe, 0xc6, 0x61, 0x52, 0x3e, 0x6a, 0xde, 0x7e, 0x3e, 0xc1, 0x02, 0xe2, 0xbd, 0xe6, 0x43, 0x84, 0xbd, 0x74, 0x9e, 0xdf, 0x3d, 0xa1, 0x77, 0x92, 0xbe, 0xd6, 0xaf, 0x72, 0xbe, 0xa2, 0xa8, 0xaf, 0xbd, 0x42, 0xed, 0x88, 0x3e, 0x06, 0xcf, 0x53, 0x3e, 0xec, 0xe7, 0x92, 0x3d, 0xe9, 0x83, 0x85, 0x3e, 0xfc, 0x9d, 0x52, 0xbe, 0x7e, 0x17, 0x0a, 0xbe, 0x4a, 0xac, 0x1a, 0xbe, 0xc9, 0xfb, 0x53, 0x3e, 0x67, 0x7a, 0x88, 0x3d, 0x4d, 0x1d, 0xd9, 0xbd, 0xac, 0xe2, 0x22, 0xbe, 0xbe, 0xcf, 0x89, 0xbe, 0xa8, 0xfc, 0x41, 0x3e, 0x67, 0x36, 0x6b, 0xbd, 0x21, 0x77, 0xf7, 0xbc, 0xc9, 0x49, 0xd1, 0x3b, 0xb0, 0xae, 0xec, 0xbd, 0xa8, 0xd4, 0x84, 0xbe, 0x12, 0x75, 0x7a, 0x3e, 0x82, 0x55, 0xef, 0x3d, 0x8c, 0x23, 0x24, 0xbd, 0x78, 0xb3, 0x78, 0xbe, 0xe7, 0xd1, 0x5d, 0xbe, 0x24, 0xa3, 0x46, 0xbd, 0x2d, 0x51, 0xe9, 0x3d, 0x5e, 0xcd, 0x8e, 0x3b, 0xad, 0x7e, 0x72, 0xbd, 0x43, 0x37, 0xeb, 0x3d, 0xd1, 0xa5, 0x25, 0x3e, 0xa3, 0x47, 0xf7, 0x3d, 0xf1, 0x9f, 0x49, 0xbe, 0x08, 0xef, 0x40, 0xbe, 0x7e, 0xa9, 0xd7, 0x3c, 0x27, 0xa5, 0xf0, 0x3d, 0x8a, 0x06, 0x4c, 0xbe, 0xd7, 0x6a, 0x9d, 0xbe, 0xa1, 0x49, 0x0c, 0xbd, 0x91, 0x13, 0xa4, 0xbd, 0x8e, 0x61, 0x37, 0x3e, 0xe6, 0x2d, 0x28, 0x3d, 0xee, 0x5c, 0x13, 0x3d, 0x43, 0x88, 0x2f, 0x3d, 0xd8, 0xa9, 0x20, 0xbe, 0x7a, 0x85, 0x38, 0x3d, 0xa7, 0xf2, 0x52, 0x3d, 0xc8, 0x7e, 0x17, 0x3d, 0xd3, 0x15, 0xf0, 0xbd, 0x3c, 0xd4, 0x00, 0xbe, 0x25, 0x42, 0x1d, 0xbe, 0xad, 0x7f, 0x8b, 0xbe, 0x6f, 0xd3, 0x85, 0x3e, 0xdb, 0xed, 0xd3, 0x3d, 0xd6, 0x50, 0x66, 0xbe, 0x18, 0x2c, 0x0a, 0x3e, 0xe4, 0xfa, 0x2e, 0x3c, 0x23, 0x97, 0xd2, 0x3d, 0x44, 0xc4, 0x1d, 0xbe, 0x6c, 0x4f, 0x18, 0xbe, 0x2d, 0x78, 0x86, 0x3d, 0xfc, 0x76, 0x79, 0xbc, 0xe1, 0x15, 0x3c, 0xbe, 0x24, 0x25, 0x65, 0x3d, 0x6b, 0xf7, 0x6f, 0x3d, 0x18, 0x48, 0xf6, 0x3c, 0x47, 0x25, 0xd3, 0xbc, 0xef, 0x2a, 0x84, 0x3e, 0x15, 0x8e, 0x8f, 0xbe, 0xaa, 0x15, 0xd1, 0xbc, 0x2a, 0x3c, 0x16, 0x3e, 0xe4, 0x1d, 0x2a, 0xbe, 0x5e, 0xbb, 0x5f, 0xbe, 0x93, 0xe5, 0x32, 0x3d, 0x34, 0x64, 0x30, 0xbd, 0xd9, 0xda, 0xa1, 0xbd, 0x28, 0x7d, 0x4d, 0x3e, 0x52, 0x6c, 0x49, 0x3e, 0x17, 0xbf, 0x72, 0x3e, 0x6b, 0xad, 0x81, 0x3c, 0x24, 0x79, 0x91, 0x3e, 0x8d, 0xeb, 0x38, 0x3e, 0x3f, 0x93, 0x94, 0x3e, 0x39, 0x26, 0x0f, 0x3e, 0x08, 0x85, 0xac, 0x3d, 0x45, 0x1c, 0x6e, 0xbe, 0xe1, 0x3a, 0x0a, 0xbe, 0xf5, 0x44, 0xec, 0xba, 0x33, 0x79, 0x92, 0xbe, 0xb5, 0xd3, 0xeb, 0x3d, 0x6d, 0xec, 0x40, 0x3d, 0x6a, 0xcf, 0x26, 0xbe, 0x62, 0x81, 0x01, 0x3e, 0xec, 0xf8, 0xd7, 0xbd, 0x16, 0x3a, 0xd1, 0x3d, 0x71, 0x43, 0xb4, 0xbd, 0xdf, 0x64, 0xaf, 0x3d, 0x87, 0x04, 0xa3, 0xbe, 0x5e, 0xd3, 0xb7, 0x3d, 0x00, 0xce, 0xb0, 0xbd, 0x54, 0xa4, 0x3a, 0x3e, 0x56, 0x11, 0x90, 0x3d, 0x51, 0xa8, 0xca, 0xbd, 0x40, 0xce, 0x81, 0x3e, 0xcb, 0x29, 0x8a, 0x3e, 0x9a, 0x43, 0x4c, 0xbe, 0x2c, 0xd3, 0xd2, 0x3d, 0xea, 0x24, 0x90, 0xbe, 0x64, 0xf3, 0xab, 0x3c, 0x47, 0x77, 0x0d, 0xbe, 0x78, 0xaa, 0xfb, 0xbc, 0xd1, 0x75, 0xf8, 0xbd, 0x3b, 0xc9, 0x2c, 0x3e, 0x4d, 0xd1, 0xf0, 0x38, 0x3b, 0xa1, 0xf4, 0xbd, 0x0f, 0x30, 0xb7, 0xbd, 0xbf, 0x93, 0x3c, 0x3c, 0x9f, 0xda, 0x11, 0x3e, 0xc1, 0x5d, 0x04, 0xbe, 0xd0, 0x6d, 0xad, 0x3d, 0xbe, 0x46, 0x74, 0xbe, 0x21, 0x44, 0x47, 0xbe, 0xa5, 0x98, 0x40, 0xbe, 0xf7, 0xee, 0x6d, 0xbd, 0x3c, 0x5e, 0x6c, 0xbe, 0x56, 0x7d, 0xcd, 0x3c, 0xaa, 0x73, 0x5b, 0xbe, 0x61, 0xef, 0x2b, 0x3e, 0xf5, 0x29, 0x3c, 0x3e, 0x47, 0x1d, 0x5d, 0x3e, 0x68, 0x15, 0x30, 0x3d, 0xe1, 0xb2, 0x22, 0xbe, 0x69, 0xde, 0x10, 0xbd, 0xa1, 0x79, 0x72, 0xbe, 0x49, 0x16, 0x5a, 0x3e, 0x28, 0x19, 0x33, 0x3d, 0xf9, 0x89, 0x3d, 0xbe, 0xf5, 0x86, 0x29, 0xbd, 0x40, 0xff, 0x81, 0x3e, 0xd3, 0x5e, 0x7d, 0x3e, 0xf4, 0x34, 0x56, 0xbe, 0xb3, 0x2b, 0xbc, 0xbc, 0xb7, 0x02, 0x9c, 0xbd, 0x1d, 0x91, 0x9e, 0xbe, 0x30, 0x2d, 0x5f, 0xbd, 0x0f, 0xeb, 0xf7, 0xbd, 0xd2, 0x7c, 0xbf, 0x3d, 0x25, 0xa8, 0x93, 0xbe, 0x01, 0x34, 0x96, 0xbe, 0x7e, 0x40, 0x39, 0x3e, 0x4d, 0x35, 0x9e, 0xbe, 0x51, 0x64, 0x9a, 0xbd, 0xe4, 0x5f, 0x87, 0xbe, 0xd9, 0x62, 0x31, 0xbe, 0xa9, 0x89, 0x0b, 0x3e, 0xed, 0xa9, 0x65, 0xbe, 0xc0, 0x72, 0x54, 0xbe, 0xfd, 0x14, 0xfb, 0xbd, 0xc8, 0x30, 0x41, 0x3e, 0x6a, 0x71, 0xa4, 0x3e, 0xcc, 0x6a, 0xb6, 0x3d, 0x4f, 0xb1, 0x08, 0xbe, 0x41, 0x2f, 0xb7, 0xbd, 0x67, 0x33, 0x71, 0xbb, 0xd2, 0x94, 0x39, 0xbe, 0x8e, 0x7c, 0x86, 0xbc, 0x38, 0xf0, 0x0f, 0xbc, 0x45, 0xb3, 0x8c, 0x3d, 0x44, 0xd8, 0x44, 0xbe, 0x4a, 0x4c, 0x91, 0x3e, 0x41, 0xc8, 0x7f, 0xbe, 0xef, 0x0d, 0x8b, 0xbe, 0x9c, 0x25, 0x8e, 0xbd, 0xab, 0x96, 0x56, 0x3e, 0xe6, 0xc2, 0x22, 0x3e, 0xe8, 0x61, 0x68, 0xbd, 0xdd, 0xc9, 0x8e, 0x3e, 0x11, 0xf7, 0x56, 0xbe, 0x64, 0xd1, 0x2d, 0xbe, 0x35, 0x9b, 0x8e, 0x3e, 0x45, 0xf9, 0x50, 0xbe, 0x61, 0x9d, 0xd8, 0xbd, 0x7d, 0x0e, 0x18, 0x3e, 0xca, 0xce, 0xe8, 0xbd, 0x31, 0xbe, 0x1a, 0x3d, 0xe4, 0xc0, 0x39, 0xbe, 0x9e, 0xcd, 0x78, 0x3e, 0x31, 0xfc, 0x36, 0xbd, 0xf0, 0xd9, 0xff, 0x3c, 0x2e, 0xd3, 0xf6, 0x3d, 0xaf, 0x90, 0x9d, 0xbe, 0x6d, 0x0d, 0xe7, 0x3d, 0x74, 0x6a, 0x3e, 0xbe, 0xe7, 0x08, 0x35, 0xbd, 0x85, 0x62, 0xcd, 0x3d, 0xfc, 0xf0, 0x58, 0xbe, 0xee, 0xd9, 0xd8, 0xbd, 0x05, 0xd0, 0x3e, 0x3e, 0x20, 0x39, 0x0d, 0x3e, 0xcc, 0x68, 0xa2, 0xbe, 0x05, 0xa9, 0x07, 0x3d, 0xcb, 0xa9, 0x37, 0x3e, 0xe7, 0x3c, 0x62, 0x3e, 0x1d, 0x07, 0xde, 0x3d, 0x5c, 0x95, 0x26, 0xbe, 0x00, 0xdf, 0x80, 0xbe, 0xaf, 0x35, 0x88, 0x3e, 0x88, 0xd6, 0x31, 0x3d, 0x4d, 0x37, 0x3b, 0x3e, 0x31, 0x8e, 0x3d, 0x3e, 0x97, 0xe6, 0x37, 0xbe, 0x8c, 0x27, 0x70, 0xbc, 0x50, 0x6a, 0x97, 0xbe, 0x49, 0xd5, 0x0e, 0xbe, 0x76, 0x04, 0x28, 0x3d, 0x30, 0xf9, 0x16, 0xbd, 0x80, 0x18, 0xf5, 0xbd, 0xb6, 0xe5, 0x83, 0x3e, 0xca, 0x5b, 0x64, 0xbe, 0xf1, 0xf3, 0x38, 0x3e, 0xbf, 0x22, 0x3a, 0xbe, 0xe2, 0x3a, 0x50, 0x3e, 0xbc, 0x1a, 0xbf, 0x3d, 0x0a, 0x9d, 0x2a, 0x3c, 0xe1, 0x4d, 0x2e, 0x3e, 0x9e, 0xd5, 0x0c, 0xbc, 0x47, 0xaa, 0xa9, 0xbe, 0x0a, 0x3c, 0x8b, 0xbd, 0xd7, 0x61, 0x5a, 0x3e, 0x85, 0x5a, 0xc9, 0x3d, 0x22, 0x27, 0x82, 0xbe, 0x45, 0xa1, 0xac, 0xbd, 0x74, 0x91, 0xe9, 0xbd, 0x41, 0xb7, 0x34, 0xbe, 0xe8, 0x2e, 0x39, 0x3e, 0xaa, 0xd6, 0xac, 0xbd, 0xdc, 0xb0, 0x25, 0x3e, 0x26, 0x16, 0x14, 0xbe, 0xa5, 0xb7, 0xb1, 0xbd, 0xba, 0xc3, 0x9c, 0x3e, 0xb3, 0x5a, 0x40, 0xbd, 0x87, 0x95, 0x02, 0xbb, 0xf9, 0x35, 0x5d, 0xbe, 0xc5, 0x80, 0x1c, 0xbe, 0x39, 0xf7, 0x8d, 0xbe, 0xc0, 0xb6, 0x99, 0x3e, 0x35, 0xe2, 0x53, 0xbd, 0xcd, 0xc5, 0x38, 0xbd, 0xbf, 0x35, 0x8e, 0xbd, 0xb8, 0x76, 0xa3, 0xbe, 0x68, 0x61, 0xfc, 0x3d, 0xb1, 0x07, 0x04, 0x3e, 0xb3, 0x3f, 0x4a, 0x3e, 0xb1, 0xae, 0x9a, 0x3d, 0x5a, 0x91, 0x21, 0xbe, 0xb8, 0x87, 0xad, 0x3d, 0xcd, 0xdf, 0xab, 0xbe, 0xe0, 0x13, 0xa4, 0xbd, 0xe0, 0x4e, 0xc5, 0xbb, 0xf2, 0x34, 0x25, 0x3e, 0x19, 0xb4, 0xe2, 0xbc, 0xd5, 0x0a, 0x09, 0x3e, 0x45, 0x53, 0x73, 0x3d, 0x45, 0x28, 0x2e, 0x3e, 0x74, 0xf0, 0x01, 0xbe, 0x43, 0x29, 0x36, 0xbe, 0x7c, 0xf1, 0x28, 0x3d, 0xd9, 0xeb, 0x97, 0xbe, 0xf5, 0x44, 0x37, 0x3e, 0xce, 0x29, 0x9f, 0xbd, 0xe2, 0xf2, 0x1f, 0xbe, 0xbe, 0x60, 0xb3, 0x3c, 0xa2, 0xf8, 0x62, 0xbe, 0x17, 0x75, 0x8c, 0x3e, 0xb2, 0x61, 0xc5, 0x3b, 0xcd, 0xe1, 0xa5, 0xbe, 0x09, 0x62, 0x6c, 0xbd, 0x17, 0x62, 0x79, 0x3e, 0x21, 0x38, 0x9a, 0xbe, 0x49, 0x4e, 0xff, 0x3d, 0x53, 0x0b, 0x5d, 0x3e, 0x44, 0x1f, 0xca, 0x3d, 0xc1, 0x5d, 0x4b, 0x3d, 0xa3, 0x0f, 0x08, 0xbe, 0xe8, 0x30, 0x43, 0x3e, 0xed, 0xdb, 0x30, 0x3d, 0x6c, 0x36, 0x76, 0xbe, 0x0c, 0xe6, 0x4f, 0x3e, 0xa4, 0x5a, 0x07, 0x3e, 0x6d, 0x2d, 0x2b, 0x3e, 0xd7, 0xd8, 0x23, 0xbe, 0x89, 0x18, 0xcb, 0xbd, 0x91, 0xfe, 0x5a, 0xbe, 0xe2, 0x17, 0x58, 0xbd, 0xa8, 0x09, 0xe0, 0x3d, 0x0b, 0x43, 0xa0, 0xbe, 0xd4, 0xeb, 0xb4, 0xbd, 0x00, 0x6f, 0x8c, 0xbe, 0x61, 0x66, 0xb8, 0xbe, 0xa2, 0xb3, 0x9d, 0xbe, 0xfa, 0x3e, 0xfa, 0xbc, 0xf5, 0x3a, 0x05, 0x3e, 0x9a, 0x8d, 0xd0, 0x3d, 0x72, 0x00, 0xc6, 0xbd, 0x7a, 0xef, 0x33, 0x3d, 0x43, 0x72, 0x40, 0xbe, 0xa0, 0x81, 0xbd, 0xbd, 0x57, 0x37, 0x72, 0x3e, 0x67, 0x7e, 0x90, 0xbe, 0x53, 0x7f, 0xcc, 0xbd, 0x0d, 0x22, 0x06, 0x3e, 0x3e, 0x80, 0x8f, 0xbe, 0xb9, 0x91, 0x59, 0xbd, 0xa6, 0x7a, 0x14, 0x3e, 0xab, 0xe7, 0xab, 0xbc, 0xb7, 0x85, 0x93, 0x3d, 0xc8, 0x47, 0xb2, 0x3c, 0x1a, 0x05, 0x19, 0xbe, 0xcf, 0x2a, 0x8f, 0xbd, 0x2a, 0x5e, 0x1f, 0xbe, 0xb1, 0x5f, 0xe1, 0x3c, 0x7c, 0xd8, 0x34, 0x3e, 0x08, 0x9c, 0x84, 0xbe, 0x17, 0xc6, 0x30, 0xbe, 0x7d, 0x85, 0x0c, 0xbe, 0x6d, 0x16, 0x34, 0x3e, 0x25, 0x6e, 0x95, 0xbe, 0x3f, 0xb1, 0xac, 0xbd, 0xa6, 0xe0, 0xc2, 0x3c, 0x1f, 0xdb, 0xe8, 0xbd, 0xaf, 0xf3, 0xec, 0x3c, 0xa0, 0x50, 0x8d, 0x3d, 0x26, 0x4a, 0xf4, 0x3b, 0xb9, 0x11, 0x71, 0x3e, 0xfb, 0xd4, 0x2a, 0xbe, 0x98, 0x40, 0x71, 0x3e, 0x97, 0x6c, 0xe3, 0xbd, 0x9b, 0x7a, 0x92, 0x3e, 0x7e, 0x54, 0xf9, 0xbd, 0x44, 0x57, 0x6e, 0xbe, 0x41, 0x18, 0x81, 0xbd, 0xa0, 0x4f, 0x2f, 0x3e, 0x1f, 0xd7, 0xd9, 0x3d, 0x80, 0x6b, 0x7d, 0x3e, 0x03, 0x48, 0x7b, 0xbd, 0x5f, 0xec, 0x63, 0x3e, 0xe1, 0x91, 0x47, 0xbe, 0xed, 0xa7, 0x92, 0x3e, 0xfe, 0x72, 0xa7, 0x3b, 0x41, 0x53, 0x9e, 0xbe, 0xb3, 0x32, 0xbb, 0x3d, 0xde, 0x43, 0x10, 0xbd, 0xd0, 0xb8, 0xeb, 0x3c, 0x15, 0xe7, 0x3d, 0xbe, 0xe1, 0x43, 0xd3, 0x3d, 0x01, 0xc6, 0xa6, 0xbd, 0xf1, 0x0b, 0x8f, 0xbe, 0xe0, 0xb5, 0x94, 0x3e, 0xab, 0x8f, 0x8d, 0xbe, 0x48, 0x92, 0xae, 0x3d, 0xb2, 0x31, 0x94, 0x3e, 0xb2, 0x65, 0xc2, 0xbc, 0xed, 0xd5, 0x4d, 0xbd, 0x38, 0x4c, 0x7f, 0x3e, 0x54, 0xa8, 0xb9, 0x3b, 0x53, 0x90, 0x47, 0x3e, 0xe1, 0xac, 0x08, 0xbe, 0xd8, 0xb6, 0x2d, 0x3e, 0x6e, 0xc2, 0x30, 0x3e, 0xc2, 0x02, 0xd7, 0x3d, 0xe2, 0xf5, 0x48, 0xbe, 0x6a, 0x56, 0x04, 0xbe, 0xeb, 0x88, 0x3c, 0x3e, 0x4d, 0x08, 0x8e, 0xbe, 0xc7, 0xd2, 0x30, 0x3d, 0xfb, 0x6f, 0x57, 0xbe, 0x6c, 0x8e, 0x90, 0x3e, 0xbf, 0x94, 0xa5, 0xbe, 0x3a, 0x86, 0xcc, 0x3d, 0x63, 0x45, 0x8e, 0xbe, 0x04, 0x9a, 0x85, 0xbe, 0xa1, 0x60, 0x85, 0x3d, 0x7a, 0x2f, 0x0f, 0x3d, 0x7d, 0xd1, 0x51, 0x3e, 0x9f, 0xd7, 0x80, 0x3d, 0xb6, 0xa2, 0xe5, 0x3d, 0x88, 0x80, 0xa8, 0xbe, 0xbd, 0x74, 0x23, 0x3e, 0x8b, 0x48, 0x7a, 0xbe, 0x87, 0xdb, 0x94, 0xbd, 0x93, 0x22, 0x7a, 0x3e, 0xeb, 0x39, 0x04, 0x3e, 0x40, 0x53, 0x16, 0xbe, 0xaa, 0xd6, 0xf6, 0x3d, 0xa4, 0xfe, 0x19, 0x3e, 0xa8, 0x6b, 0x5e, 0x3e, 0x4e, 0x86, 0x3f, 0xbd, 0x6e, 0xa0, 0x24, 0x3d, 0xa6, 0x2c, 0x96, 0xbe, 0xe0, 0x6d, 0x54, 0xbe, 0xad, 0xe6, 0x10, 0x3e, 0xaa, 0x38, 0x07, 0x3e, 0xa2, 0x49, 0x86, 0xbe, 0x9a, 0x54, 0x7c, 0xbd, 0xde, 0x5f, 0x2f, 0xbe, 0x6f, 0x92, 0x19, 0x3e, 0x00, 0x13, 0xf2, 0xbd, 0x62, 0x12, 0x18, 0x3e, 0x6b, 0x24, 0x9a, 0xbd, 0x80, 0x02, 0x55, 0x3c, 0x34, 0x11, 0xe1, 0xbd, 0x88, 0xf6, 0xff, 0xbd, 0x40, 0x38, 0xda, 0xbd, 0xd8, 0x5e, 0x15, 0x3d, 0x46, 0x2d, 0x87, 0xbe, 0x8c, 0xe4, 0x8b, 0xbe, 0x2c, 0x98, 0xc7, 0x3d, 0x60, 0x23, 0x7b, 0xbd, 0x08, 0xdd, 0xc4, 0xbd, 0xe8, 0xad, 0x4b, 0xbd, 0x36, 0x1b, 0x6e, 0xbe, 0x22, 0xfe, 0x44, 0x3e, 0x54, 0x4e, 0xba, 0x3d, 0xc8, 0xeb, 0x50, 0xbd, 0xac, 0xb0, 0xd0, 0xbd, 0x2d, 0xa5, 0x58, 0xbe, 0x84, 0x6e, 0xc6, 0x3d, 0xc3, 0xda, 0x5e, 0xbe, 0x10, 0x94, 0xd3, 0x3c, 0x8e, 0xf0, 0x69, 0x3e, 0x90, 0xa3, 0x9b, 0x3c, 0xa0, 0x2f, 0x68, 0x3c, 0x3e, 0x9d, 0x79, 0x3e, 0x2c, 0x02, 0x6a, 0xbd, 0x42, 0x2b, 0x07, 0x3e, 0x94, 0x52, 0xde, 0x3d, 0x8a, 0xaa, 0x6b, 0x3e, 0xba, 0x3f, 0xfe, 0xbd, 0x20, 0xa0, 0x4f, 0x3c, 0x50, 0x41, 0x17, 0xbd, 0x9e, 0x6b, 0xc7, 0xbd, 0x28, 0x2d, 0x80, 0x3d, 0xf6, 0x88, 0xf3, 0x3c, 0xee, 0x47, 0x66, 0x3e, 0xf8, 0x0e, 0x87, 0x3e, 0x04, 0xdc, 0xd0, 0xbd, 0x73, 0x44, 0x5d, 0xbe, 0xf5, 0x25, 0x7c, 0x3e, 0xd1, 0x16, 0x7d, 0xbe, 0x79, 0x55, 0xb5, 0x3d, 0xfa, 0x56, 0x47, 0x3c, 0xb4, 0x43, 0x1c, 0xbe, 0x52, 0xd5, 0xa1, 0xbe, 0xca, 0x03, 0x11, 0x3d, 0xbd, 0x9f, 0x96, 0xbe, 0xed, 0x2c, 0x8b, 0xbd, 0xa6, 0xd5, 0x07, 0xbe, 0x80, 0xc8, 0x94, 0x3d, 0x79, 0x28, 0xfe, 0x3d, 0x62, 0x97, 0x89, 0x3e, 0xe3, 0x11, 0xe1, 0x3d, 0xdc, 0x80, 0x3e, 0xbe, 0x52, 0xcc, 0x12, 0x3e, 0xa2, 0x41, 0x08, 0xbe, 0x74, 0x1c, 0x81, 0x3d, 0x36, 0xae, 0xe1, 0x3d, 0xdf, 0xa5, 0x67, 0xbd, 0xe6, 0x6e, 0xcd, 0xbc, 0x37, 0xe8, 0x4b, 0xbe, 0x7b, 0xef, 0x18, 0x3e, 0x8a, 0xcd, 0xc7, 0xbd, 0x8f, 0x15, 0x3c, 0x3e, 0x75, 0x70, 0x1a, 0xbc, 0x4c, 0x26, 0x59, 0xbe, 0x5b, 0xe4, 0x4d, 0xbd, 0x67, 0xf4, 0x81, 0xbe, 0x2c, 0x15, 0x0d, 0x3e, 0x0e, 0x49, 0x45, 0x3e, 0x8b, 0xcb, 0xae, 0xbd, 0x82, 0xb4, 0x35, 0xbe, 0x00, 0x92, 0x14, 0x3e, 0x2f, 0x68, 0x71, 0xbe, 0xbf, 0xa8, 0x48, 0xbe, 0xeb, 0xfe, 0x6d, 0x3e, 0xfe, 0x97, 0x34, 0x3d, 0xa5, 0x09, 0x8d, 0xbe, 0xed, 0x7a, 0x5d, 0xbc, 0xb5, 0x2c, 0x7f, 0xbe, 0x15, 0xe1, 0xe0, 0x3d, 0xa2, 0x6b, 0x0d, 0x3e, 0x41, 0x33, 0x84, 0xbe, 0x3e, 0xaa, 0x47, 0xbe, 0x4c, 0xa4, 0x0c, 0xbe, 0x88, 0x25, 0x3a, 0x3a, 0xac, 0x61, 0xa0, 0x3d, 0x79, 0x90, 0x7a, 0xbe, 0x30, 0xbe, 0xf9, 0x3d, 0x2b, 0xa3, 0x82, 0xbe, 0x62, 0x3d, 0x50, 0x3e, 0x45, 0x95, 0x20, 0xbd, 0xdd, 0xd8, 0x61, 0x3e, 0x63, 0xe4, 0x82, 0x3e, 0xdb, 0xcc, 0x09, 0xbe, 0x61, 0x37, 0xab, 0xbe, 0x53, 0xd7, 0x4c, 0xbe, 0xcd, 0x54, 0x68, 0x3d, 0x5f, 0x72, 0x42, 0x3e, 0xf6, 0xdf, 0x2e, 0xbe, 0xc6, 0xc9, 0x53, 0xbb, 0x19, 0xdf, 0x8a, 0x3e, 0x02, 0x46, 0xd6, 0x3c, 0xd8, 0xc2, 0xe1, 0xbd, 0x31, 0x62, 0xcd, 0x3b, 0xd0, 0x69, 0xa9, 0xbd, 0x54, 0x3c, 0xa6, 0xbe, 0xe7, 0x9d, 0x1e, 0x3d, 0xd4, 0x95, 0xb6, 0xbe, 0x12, 0x05, 0x15, 0x3e, 0x3f, 0xe2, 0xa0, 0xbd, 0x89, 0xb7, 0xc5, 0x3d, 0x25, 0x2c, 0x95, 0xbd, 0x21, 0x1a, 0x0c, 0x3e, 0xb5, 0xab, 0x5b, 0x3d, 0xba, 0x52, 0xfc, 0x3d, 0x4f, 0x7a, 0x70, 0x3d, 0x4b, 0x95, 0x68, 0xbe, 0xf6, 0x8c, 0x1c, 0xbd, 0x4d, 0x4e, 0x5e, 0x3e, 0xb3, 0x79, 0xca, 0xbd, 0x70, 0x87, 0x89, 0xbe, 0x6f, 0x1f, 0x89, 0xbc, 0xbe, 0x30, 0xa1, 0x3d, 0x4f, 0x00, 0x54, 0x3e, 0x38, 0xb2, 0x86, 0xbe, 0xa9, 0x7c, 0x44, 0x3d, 0x3c, 0xc6, 0x82, 0x3c, 0xec, 0x7a, 0x86, 0xbe, 0x46, 0x28, 0x05, 0x3c, 0xeb, 0x74, 0xa6, 0x3d, 0xd5, 0xa9, 0x2e, 0xbe, 0xfa, 0x87, 0x1e, 0x3c, 0x08, 0xf4, 0x82, 0x3e, 0x4f, 0xd9, 0x92, 0xbe, 0x21, 0xb9, 0x47, 0x3e, 0x77, 0x0e, 0x23, 0xbe, 0x8c, 0x80, 0xf4, 0x3d, 0xa0, 0x1d, 0x6d, 0x3d, 0xaf, 0xa7, 0x36, 0x3e, 0x3b, 0x14, 0xea, 0xbd, 0xce, 0x44, 0x1d, 0xbe, 0xee, 0xe8, 0x14, 0x3e, 0x15, 0xf1, 0x88, 0xbe, 0xfd, 0x61, 0x4b, 0x3e, 0x31, 0x33, 0x07, 0xbe, 0x7d, 0x7b, 0x98, 0xbc, 0x43, 0xf6, 0x39, 0xbb, 0x29, 0xeb, 0x8f, 0x3e, 0x6e, 0x25, 0x99, 0x3e, 0x02, 0xc2, 0x0d, 0x3d, 0x1f, 0x59, 0x8b, 0xbe, 0xc0, 0xaf, 0x2c, 0xbe, 0x49, 0xb6, 0x2d, 0xbe, 0xe6, 0x25, 0x24, 0x3d, 0xfa, 0xfc, 0xae, 0xbd, 0x2f, 0xb7, 0x03, 0xbd, 0xaa, 0x23, 0xe2, 0xbc, 0x3b, 0xf6, 0x6a, 0x3d, 0x74, 0x85, 0x02, 0x3e, 0xc9, 0x3f, 0xee, 0xbd, 0x6a, 0x15, 0x76, 0xbe, 0x7c, 0x64, 0xdd, 0xbd, 0x18, 0xe5, 0x92, 0xbe, 0xce, 0x14, 0xb7, 0xbd, 0x32, 0x87, 0x4b, 0x3e, 0x92, 0xee, 0xec, 0xbd, 0xea, 0x75, 0x7f, 0xbe, 0xc0, 0xd6, 0x60, 0xbc, 0x25, 0xb3, 0x3d, 0xbe, 0xa2, 0xf9, 0x02, 0xbe, 0x00, 0x6e, 0xcf, 0x3b, 0xc2, 0x43, 0x86, 0xbe, 0xae, 0x4e, 0x2c, 0xbe, 0xb3, 0xb6, 0x83, 0x3e, 0xc2, 0x02, 0x09, 0x3e, 0x9b, 0x88, 0x41, 0xbe, 0x14, 0x10, 0x42, 0x3e, 0x67, 0x78, 0x04, 0xbe, 0x7a, 0xf2, 0xe8, 0xbd, 0x40, 0xd4, 0xa1, 0x3c, 0x82, 0xe0, 0x89, 0xbe, 0xfc, 0x8c, 0x89, 0x3d, 0x50, 0xb9, 0xcb, 0xbd, 0x04, 0x54, 0x3f, 0x3e, 0x00, 0x32, 0xf9, 0x3b, 0xd2, 0x77, 0x8b, 0xbe, 0x10, 0x6a, 0x51, 0x3d, 0x06, 0x81, 0x39, 0x3e, 0x86, 0x50, 0x4b, 0x3e, 0x00, 0x57, 0x77, 0xbc, 0xa6, 0xae, 0xb5, 0xbd, 0x68, 0xf7, 0x1e, 0x3e, 0xcc, 0x2c, 0xb5, 0xbd, 0x2c, 0x85, 0xf3, 0x3d, 0x21, 0x47, 0x0f, 0x3e, 0xe1, 0xae, 0xd1, 0xbd, 0x02, 0xa4, 0xb1, 0xbe, 0x3e, 0xc9, 0x77, 0xbd, 0x78, 0x5e, 0x38, 0x3e, 0xa4, 0xaa, 0x26, 0x3e, 0x84, 0xe3, 0xff, 0xbd, 0x0a, 0x55, 0x84, 0x3e, 0xa9, 0xfc, 0x08, 0x3d, 0x48, 0x60, 0x7a, 0xbe, 0x00, 0x46, 0x02, 0xbe, 0xb5, 0x15, 0x95, 0xbe, 0xf0, 0x19, 0x47, 0xbe, 0x2a, 0x15, 0xa6, 0xbd, 0xbe, 0x95, 0x45, 0x3e, 0x1f, 0x03, 0xe5, 0x3d, 0x50, 0x88, 0x04, 0xbe, 0xc9, 0x9c, 0x81, 0xbe, 0x2a, 0x85, 0x16, 0xbd, 0x3b, 0x27, 0xd0, 0x3d, 0x69, 0x27, 0x07, 0xbe, 0x90, 0x95, 0x90, 0x3e, 0x73, 0x0b, 0x77, 0x3e, 0x99, 0x8e, 0xd5, 0x3d, 0x89, 0x0e, 0x93, 0x3e, 0xa0, 0xdf, 0xb5, 0x3d, 0x3b, 0x7d, 0x86, 0x3e, 0x04, 0xcd, 0xf0, 0xbd, 0x5f, 0x35, 0xa4, 0xbd, 0xae, 0x0b, 0x2e, 0x3e, 0xc4, 0x88, 0xcb, 0x3d, 0x43, 0xaa, 0x3e, 0x3d, 0x81, 0x26, 0x9d, 0x3d, 0x44, 0x88, 0x52, 0xbe, 0xb7, 0x37, 0x95, 0x3e, 0xc2, 0xb1, 0xf0, 0x3d, 0x6b, 0xde, 0x80, 0xbe, 0x87, 0x3b, 0x81, 0x3e, 0x04, 0x03, 0x11, 0xbe, 0x10, 0xd5, 0x95, 0xbe, 0x75, 0x92, 0x09, 0x3c, 0xe9, 0xd4, 0x49, 0x3e, 0xef, 0xac, 0x8f, 0xbe, 0x86, 0x76, 0xa5, 0xbe, 0x12, 0x9a, 0x21, 0xbe, 0x41, 0x7f, 0xb7, 0xbd, 0xf5, 0xd4, 0x6e, 0x3d, 0x0f, 0xae, 0x16, 0x3c, 0xda, 0x01, 0xa4, 0xbe, 0xc0, 0xf2, 0x83, 0x3e, 0x73, 0xab, 0x8e, 0xbe, 0x86, 0x5d, 0xaf, 0x3c, 0x07, 0xd0, 0x10, 0xbe, 0x93, 0xcf, 0x19, 0x3e, 0x03, 0xbd, 0x41, 0xbe, 0xb8, 0x7c, 0x23, 0xbe, 0x11, 0xa3, 0x7a, 0x3e, 0xed, 0x2a, 0x3f, 0x3e, 0x82, 0x8d, 0x3c, 0x3e, 0x27, 0x50, 0xe9, 0x3d, 0xeb, 0x5d, 0x55, 0x3e, 0x15, 0xa1, 0x2b, 0xbe, 0xa0, 0x7c, 0xcc, 0xbd, 0xca, 0x5b, 0x3f, 0xbe, 0xe0, 0x24, 0x4e, 0x3d, 0x96, 0x06, 0x61, 0xbe, 0x2e, 0x16, 0x55, 0x3e, 0x12, 0x9f, 0x9a, 0xbd, 0xf5, 0x71, 0x57, 0xbe, 0x38, 0xcd, 0x53, 0xbe, 0x58, 0x93, 0x7e, 0x3d, 0x60, 0xa4, 0x95, 0x3d, 0x79, 0x4c, 0x2d, 0xbe, 0xde, 0x87, 0x0a, 0xbe, 0xf8, 0xb7, 0x41, 0x3e, 0x37, 0x7b, 0x1f, 0xbe, 0x42, 0x72, 0x80, 0xbd, 0x60, 0xce, 0x97, 0xbc, 0xb2, 0x07, 0x18, 0x3e, 0xc0, 0xc6, 0x89, 0xbe, 0x2f, 0x6f, 0x91, 0xbe, 0xa0, 0x91, 0xc7, 0xbc, 0x26, 0x8b, 0x54, 0xbe, 0x52, 0xf7, 0x55, 0x3e, 0x09, 0x71, 0x68, 0xbe, 0xd2, 0xf4, 0x33, 0x3e, 0xb8, 0xb5, 0x6e, 0xbd, 0x30, 0xf2, 0x3b, 0x3d, 0x40, 0x2c, 0x6b, 0xbe, 0x10, 0xc8, 0x3e, 0x3d, 0x68, 0xcc, 0x2a, 0xbe, 0xa0, 0xee, 0xc4, 0xbc, 0x5b, 0xb1, 0x83, 0x3e, 0x16, 0x1a, 0x1a, 0xbe, 0x5d, 0x43, 0x5b, 0x3d, 0x5e, 0x5e, 0xff, 0x3d, 0xe3, 0x92, 0x37, 0xbe, 0x3f, 0x11, 0x61, 0xbe, 0xb7, 0xe4, 0x0e, 0xbd, 0xca, 0xaf, 0x20, 0xbe, 0xca, 0x09, 0x4e, 0x3e, 0x36, 0x02, 0xaf, 0x3d, 0x0d, 0x25, 0x8a, 0x3e, 0x84, 0x12, 0x9f, 0x3e, 0x84, 0x7c, 0x01, 0xbe, 0x19, 0x83, 0x95, 0x3e, 0x98, 0xe5, 0x49, 0xbe, 0x7e, 0xd6, 0x62, 0x3e, 0xaa, 0x5e, 0x9e, 0x3c, 0x96, 0x31, 0xd0, 0x3c, 0xbf, 0xd4, 0x92, 0x3d, 0x0f, 0x66, 0x9c, 0x3b, 0xa6, 0x0d, 0x75, 0x3e, 0x26, 0xf3, 0x01, 0xbe, 0xb2, 0x87, 0x57, 0xbe, 0x5f, 0x8a, 0xb9, 0xbd, 0x3b, 0x5d, 0x8c, 0x3d, 0xa8, 0x3c, 0x6b, 0xbe, 0xfa, 0xbf, 0x40, 0xbe, 0xdd, 0x47, 0x93, 0x3d, 0xf3, 0xb2, 0x17, 0x3e, 0x27, 0x11, 0x2d, 0xbe, 0xef, 0xce, 0x4e, 0xbe, 0x2c, 0x37, 0x91, 0x3d, 0x16, 0x9a, 0x2d, 0x3e, 0x1e, 0x53, 0x69, 0x3e, 0x11, 0x1d, 0x74, 0xbd, 0x19, 0x52, 0x1e, 0xbc, 0xef, 0xf0, 0x30, 0x3e, 0x43, 0x76, 0x31, 0x3e, 0x19, 0x99, 0x48, 0xbe, 0xa6, 0xe8, 0x74, 0xbe, 0x6f, 0x0c, 0x98, 0x3e, 0xc6, 0x51, 0x0c, 0xbd, 0x6d, 0x18, 0x77, 0x3e, 0x8d, 0x77, 0x99, 0x3e, 0x25, 0xa1, 0x81, 0xbe, 0xcc, 0xf8, 0x28, 0x3e, 0xc2, 0xc5, 0x1c, 0x3d, 0xdf, 0x8e, 0xb5, 0xbd, 0x89, 0x47, 0x3a, 0x3e, 0x38, 0x5d, 0x03, 0xbe, 0xe2, 0x62, 0x7f, 0xbe, 0xfd, 0x12, 0xa2, 0x3e, 0xe3, 0xee, 0xed, 0x3d, 0xe0, 0xf7, 0x7e, 0xbe, 0x93, 0x8e, 0x88, 0xbe, 0x5c, 0x2d, 0xa1, 0x3e, 0x07, 0xf2, 0x06, 0x3e, 0x1d, 0x98, 0x59, 0xbe, 0xef, 0x03, 0x2b, 0x3e, 0x99, 0x80, 0x69, 0x3e, 0xb5, 0x3e, 0xf2, 0xbd, 0xc8, 0x8d, 0x96, 0x3e, 0x56, 0x93, 0x5a, 0xbe, 0x33, 0xfc, 0xb1, 0x3d, 0x96, 0x2a, 0xf9, 0x3d, 0x34, 0x28, 0x7f, 0x3e, 0x26, 0x1b, 0x15, 0x3e, 0xd5, 0x7c, 0x3a, 0xbe, 0x3a, 0xea, 0x05, 0xbe, 0x2d, 0x80, 0x8a, 0x3d, 0x38, 0x4e, 0x02, 0x3e, 0x2d, 0x34, 0x3c, 0xbc, 0x4f, 0x26, 0xa8, 0xbc, 0xa1, 0x36, 0x62, 0xbe, 0x3b, 0x83, 0x54, 0x3e, 0xc1, 0x8a, 0x47, 0x3e, 0x4e, 0xeb, 0x1e, 0x3e, 0x3d, 0x24, 0x09, 0xbd, 0x8c, 0x4d, 0xb2, 0x3d, 0x4a, 0xe3, 0x9c, 0xbe, 0x97, 0x71, 0x06, 0xbe, 0x5a, 0x72, 0x3a, 0xbe, 0x09, 0xff, 0xf8, 0xbd, 0x77, 0x9c, 0x22, 0xbe, 0x8c, 0xd0, 0xad, 0xbc, 0x1b, 0x40, 0xb0, 0x3d, 0x5b, 0x93, 0x76, 0x3e, 0x72, 0xbc, 0x2d, 0xbe, 0x50, 0x38, 0x2d, 0xbe, 0x22, 0x09, 0x9d, 0xbe, 0x4e, 0x7d, 0x51, 0x3e, 0x18, 0xa8, 0x51, 0x3d, 0x2c, 0x3c, 0x0c, 0xbe, 0x2b, 0xec, 0x79, 0x3d, 0xef, 0x08, 0x38, 0xbd, 0xf0, 0x3a, 0x14, 0xbe, 0xd4, 0x85, 0xbe, 0xbd, 0x65, 0xf6, 0x28, 0xbe, 0xe8, 0xef, 0x14, 0xbd, 0x70, 0xd8, 0xe7, 0xbd, 0x56, 0x1f, 0x8e, 0xbe, 0x7d, 0x82, 0x1d, 0xbe, 0x54, 0x53, 0x20, 0x3e, 0xa8, 0x03, 0x49, 0xbd, 0xa6, 0x1b, 0x97, 0xbd, 0xe0, 0x08, 0x6d, 0x3c, 0x38, 0xeb, 0xb7, 0x3d, 0xc0, 0x8f, 0x9b, 0xbe, 0xe0, 0x24, 0xf8, 0xbd, 0x2f, 0x9a, 0x90, 0xbe, 0x87, 0xb9, 0x08, 0xbe, 0xe1, 0xa6, 0x58, 0xbe, 0x9a, 0x57, 0xde, 0xbd, 0xf6, 0x3e, 0x92, 0xbd, 0xac, 0xb7, 0x5b, 0xbe, 0x8c, 0xfd, 0x11, 0x3e, 0xd7, 0x6c, 0x9c, 0x3e, 0x52, 0x59, 0x95, 0xbe, 0x00, 0x3a, 0x18, 0xbd, 0xd2, 0x61, 0x4f, 0x3e, 0x6a, 0xc1, 0xa3, 0xbd, 0xd1, 0x44, 0x96, 0xbe, 0x9b, 0xcd, 0x48, 0xbe, 0xe0, 0x3f, 0x87, 0xbc, 0x40, 0xf8, 0xe1, 0x3c, 0x20, 0xcc, 0x05, 0xbc, 0x78, 0x2d, 0x46, 0x3e, 0x00, 0x71, 0x88, 0xbd, 0x58, 0x58, 0x43, 0xbe, 0x86, 0x7f, 0x40, 0x3e, 0xd1, 0x7e, 0x41, 0x3e, 0x4a, 0xc3, 0xbb, 0x3c, 0xdd, 0x1a, 0x82, 0xbe, 0x98, 0xfa, 0x7b, 0x3d, 0xb3, 0xfe, 0x20, 0xbe, 0xc1, 0x6d, 0x5e, 0x3e, 0x19, 0xd4, 0x6f, 0x3c, 0x87, 0x42, 0x5e, 0x3e, 0xa1, 0xfc, 0x74, 0x3e, 0x88, 0x73, 0xe8, 0xbd, 0x5d, 0x99, 0x9b, 0xbe, 0xbd, 0xf7, 0x4b, 0xbe, 0xe7, 0x83, 0x5c, 0xbe, 0x5c, 0x82, 0x50, 0xbe, 0x20, 0xd3, 0xcb, 0xbd, 0xc8, 0xa9, 0x1e, 0x3e, 0x55, 0x11, 0xb9, 0xbd, 0xa1, 0x4c, 0x44, 0xbd, 0xd1, 0xf4, 0xb9, 0xbb, 0xbd, 0xf9, 0x1b, 0x3e, 0x95, 0x4c, 0x15, 0xbe, 0x71, 0x78, 0x52, 0x3e, 0x59, 0x44, 0xe9, 0x3b, 0x99, 0x90, 0x02, 0xbe, 0x0f, 0xa5, 0x77, 0xbd, 0x5a, 0x0e, 0xcf, 0xbd, 0xc2, 0x67, 0xbb, 0x3d, 0xea, 0x3d, 0x74, 0x3e, 0x2a, 0xad, 0x15, 0x3e, 0x1b, 0x88, 0x65, 0xbe, 0xae, 0x27, 0x2c, 0x3e, 0x76, 0xf0, 0x97, 0xbe, 0x9b, 0x8f, 0x1a, 0xbe, 0xb6, 0xae, 0xf0, 0x3d, 0x98, 0xfb, 0x27, 0x3e, 0x1a, 0xef, 0x1d, 0xbd, 0x43, 0xd5, 0x88, 0x3e, 0x22, 0x66, 0x0d, 0xbe, 0x7b, 0x74, 0x3a, 0xbe, 0x4b, 0x34, 0x22, 0x3e, 0x2a, 0x20, 0x8d, 0xbd, 0x99, 0x34, 0x39, 0xbd, 0x8e, 0x1a, 0x4c, 0x3d, 0xcd, 0xf2, 0x32, 0xbd, 0xf4, 0x87, 0x98, 0xbe, 0xd0, 0x06, 0x27, 0x3e, 0x00, 0x7b, 0x4c, 0x3e, 0xa4, 0x9b, 0x87, 0x3d, 0x86, 0x43, 0x35, 0xbe, 0x32, 0xd8, 0x09, 0xbe, 0x68, 0x07, 0x43, 0xbe, 0xdc, 0xee, 0x07, 0x3d, 0xc5, 0xab, 0x8a, 0x3e, 0xd4, 0xb7, 0x80, 0x3e, 0x75, 0xca, 0x49, 0xbe, 0x0c, 0x6a, 0x71, 0xbe, 0x16, 0x3b, 0xcd, 0xbd, 0xa3, 0xe4, 0xb9, 0xbd, 0x91, 0x3a, 0x31, 0xbe, 0x51, 0x71, 0x8c, 0xbc, 0x7f, 0xb0, 0x72, 0xbe, 0x16, 0x08, 0x30, 0x3c, 0xad, 0x07, 0x3d, 0xbd, 0x88, 0xe3, 0x89, 0xbe, 0x5a, 0xfe, 0xff, 0xff, 0x10, 0x00, 0x00, 0x00, 0x05, 0x00, 0x00, 0x00, 0x14, 0x00, 0x00, 0x00, 0x2c, 0x00, 0x00, 0x00, 0x02, 0x00, 0x00, 0x00, 0x20, 0x00, 0x00, 0x00, 0x20, 0x00, 0x00, 0x00, 0x17, 0x00, 0x00, 0x00, 0x73, 0x65, 0x71, 0x75, 0x65, 0x6e, 0x74, 0x69, 0x61, 0x6c, 0x2f, 0x64, 0x65, 0x6e, 0x73, 0x65, 0x2f, 0x4d, 0x61, 0x74, 0x4d, 0x75, 0x6c, 0x00, 0xe8, 0xfd, 0xff, 0xff, 0xbe, 0xfe, 0xff, 0xff, 0x04, 0x00, 0x00, 0x00, 0x80, 0x00, 0x00, 0x00, 0xa6, 0xcf, 0x9a, 0xbe, 0x00, 0x00, 0x00, 0x00, 0x00, 0x00, 0x00, 0x00, 0x19, 0x0e, 0x05, 0xbc, 0x78, 0x1c, 0x30, 0xbd, 0x80, 0x6f, 0x87, 0xbe, 0x82, 0x03, 0x9b, 0xbd, 0xb9, 0xdc, 0x6a, 0xbb, 0x4a, 0xb4, 0xdd, 0xbc, 0x0f, 0xb8, 0x7b, 0x3c, 0xfa, 0xd9, 0x48, 0xbd, 0x8d, 0x8c, 0x7e, 0x3e, 0x73, 0xae, 0x5d, 0xbe, 0x84, 0xd2, 0xda, 0x3d, 0xd9, 0x7e, 0x7f, 0x3e, 0x12, 0xf7, 0x5b, 0x3d, 0x6e, 0x81, 0xf2, 0xbc, 0x00, 0x00, 0x00, 0x00, 0x06, 0xa2, 0x77, 0xbd, 0x3d, 0xa2, 0xe1, 0xbc, 0x9c, 0x49, 0x2d, 0xbd, 0x8a, 0xff, 0xae, 0xbd, 0x00, 0x00, 0x00, 0x00, 0xf2, 0x46, 0x91, 0xbe, 0x04, 0x38, 0x9e, 0xbd, 0x00, 0x00, 0x00, 0x00, 0x9d, 0xdd, 0x57, 0xbd, 0x3c, 0x1e, 0xa1, 0x3d, 0x15, 0x32, 0xcc, 0xbd, 0x00, 0x00, 0x00, 0x00, 0xb6, 0xa3, 0x2c, 0xbe, 0xdc, 0xf4, 0x80, 0xbd, 0x26, 0xff, 0xff, 0xff, 0x10, 0x00, 0x00, 0x00, 0x04, 0x00, 0x00, 0x00, 0x10, 0x00, 0x00, 0x00, 0x1c, 0x00, 0x00, 0x00, 0x01, 0x00, 0x00, 0x00, 0x20, 0x00, 0x00, 0x00, 0x0a, 0x00, 0x00, 0x00, 0x64, 0x65, 0x6e, 0x73, 0x65, 0x2f, 0x62, 0x69, 0x61, 0x73, 0x00, 0x00, 0xa4, 0xfe, 0xff, 0xff, 0x7a, 0xff, 0xff, 0xff, 0x04, 0x00, 0x00, 0x00, 0x40, 0x00, 0x00, 0x00, 0xaf, 0x61, 0x1d, 0xbe, 0x02, 0x1f, 0x49, 0x3d, 0x71, 0x4f, 0xc9, 0xbd, 0x45, 0xd0, 0x55, 0x3b, 0x6d, 0x66, 0x49, 0x3c, 0x86, 0xcd, 0xac, 0xbd, 0x94, 0xa7, 0xbf, 0xbe, 0x1d, 0x6a, 0x47, 0xbe, 0x21, 0x5c, 0x61, 0xbe, 0x48, 0x2a, 0xc2, 0xbe, 0xa2, 0x59, 0xf0, 0xbe, 0x6f, 0x27, 0x12, 0x3c, 0x9f, 0x12, 0x99, 0xbe, 0xdb, 0xd5, 0x77, 0xbe, 0x8b, 0x8b, 0x2e, 0xbe, 0xb1, 0x21, 0x73, 0xbe, 0xa2, 0xff, 0xff, 0xff, 0x10, 0x00, 0x00, 0x00, 0x03, 0x00, 0x00, 0x00, 0x10, 0x00, 0x00, 0x00, 0x24, 0x00, 0x00, 0x00, 0x01, 0x00, 0x00, 0x00, 0x10, 0x00, 0x00, 0x00, 0x0c, 0x00, 0x00, 0x00, 0x64, 0x65, 0x6e, 0x73, 0x65, 0x5f, 0x31, 0x2f, 0x62, 0x69, 0x61, 0x73, 0x00, 0x00, 0x00, 0x00, 0x04, 0x00, 0x06, 0x00, 0x04, 0x00, 0x00, 0x00, 0x00, 0x00, 0x06, 0x00, 0x08, 0x00, 0x04, 0x00, 0x06, 0x00, 0x00, 0x00, 0x04, 0x00, 0x00, 0x00, 0x10, 0x00, 0x00, 0x00, 0x28, 0x23, 0x5a, 0x3f, 0x1c, 0x56, 0xe4, 0xbe, 0xcc, 0x1b, 0x35, 0xbe, 0x71, 0xc7, 0xc0, 0xbe, 0x00, 0x00, 0x0e, 0x00, 0x14, 0x00, 0x04, 0x00, 0x00, 0x00, 0x08, 0x00, 0x0c, 0x00, 0x10, 0x00, 0x0e, 0x00, 0x00, 0x00, 0x10, 0x00, 0x00, 0x00, 0x02, 0x00, 0x00, 0x00, 0x10, 0x00, 0x00, 0x00, 0x20, 0x00, 0x00, 0x00, 0x01, 0x00, 0x00, 0x00, 0x04, 0x00, 0x00, 0x00, 0x0c, 0x00, 0x00, 0x00, 0x64, 0x65, 0x6e, 0x73, 0x65, 0x5f, 0x32, 0x2f, 0x62, 0x69, 0x61, 0x73, 0x00, 0x00, 0x00, 0x00, 0x90, 0xff, 0xff, 0xff, 0x14, 0x00, 0x18, 0x00, 0x04, 0x00, 0x00, 0x00, 0x08, 0x00, 0x0c, 0x00, 0x10, 0x00, 0x00, 0x00, 0x00, 0x00, 0x14, 0x00, 0x14, 0x00, 0x00, 0x00, 0x14, 0x00, 0x00, 0x00, 0x01, 0x00, 0x00, 0x00, 0x18, 0x00, 0x00, 0x00, 0x44, 0x00, 0x00, 0x00, 0x34, 0x00, 0x00, 0x00, 0x02, 0x00, 0x00, 0x00, 0x01, 0x00, 0x00, 0x00, 0x20, 0x00, 0x00, 0x00, 0x1d, 0x00, 0x00, 0x00, 0x73, 0x65, 0x72, 0x76, 0x69, 0x6e, 0x67, 0x5f, 0x64, 0x65, 0x66, 0x61, 0x75, 0x6c, 0x74, 0x5f, 0x64, 0x65, 0x6e, 0x73, 0x65, 0x5f, 0x69, 0x6e, 0x70, 0x75, 0x74, 0x3a, 0x30, 0x00, 0x00, 0x00, 0x02, 0x00, 0x00, 0x00, 0xff, 0xff, 0xff, 0xff, 0x20, 0x00, 0x00, 0x00, 0xfc, 0xff, 0xff, 0xff, 0x04, 0x00, 0x04, 0x00, 0x04, 0x00, 0x00, 0x00};
const int model_data_len = 8432;